const unsigned char model[] = {
  0x20, 0x00, 0x00, 0x00, 0x54, 0x46, 0x4c, 0x33, 0x00, 0x00, 0x00, 0x00,
  0x14, 0x00, 0x20, 0x00, 0x1c, 0x00, 0x18, 0x00, 0x14, 0x00, 0x10, 0x00,
  0x0c, 0x00, 0x00, 0x00, 0x08, 0x00, 0x04, 0x00, 0x14, 0x00, 0x00, 0x00,
  0x1c, 0x00, 0x00, 0x00, 0x8c, 0x00, 0x00, 0x00, 0x0c, 0x01, 0x00, 0x00,
  0x34, 0x13, 0x00, 0x00, 0x44, 0x13, 0x00, 0x00, 0x84, 0x1e, 0x00, 0x00,
  0x03, 0x00, 0x00, 0x00, 0x01, 0x00, 0x00, 0x00, 0x04, 0x00, 0x00, 0x00,
  0x06, 0xec, 0xff, 0xff, 0x0c, 0x00, 0x00, 0x00, 0x1c, 0x00, 0x00, 0x00,
  0x3c, 0x00, 0x00, 0x00, 0x0f, 0x00, 0x00, 0x00, 0x73, 0x65, 0x72, 0x76,
  0x69, 0x6e, 0x67, 0x5f, 0x64, 0x65, 0x66, 0x61, 0x75, 0x6c, 0x74, 0x00,
  0x01, 0x00, 0x00, 0x00, 0x04, 0x00, 0x00, 0x00, 0x68, 0xff, 0xff, 0xff,
  0x0e, 0x00, 0x00, 0x00, 0x04, 0x00, 0x00, 0x00, 0x08, 0x00, 0x00, 0x00,
  0x6f, 0x75, 0x74, 0x70, 0x75, 0x74, 0x5f, 0x30, 0x00, 0x00, 0x00, 0x00,
  0x01, 0x00, 0x00, 0x00, 0x04, 0x00, 0x00, 0x00, 0xaa, 0xec, 0xff, 0xff,
  0x04, 0x00, 0x00, 0x00, 0x0c, 0x00, 0x00, 0x00, 0x6b, 0x65, 0x72, 0x61,
  0x73, 0x5f, 0x74, 0x65, 0x6e, 0x73, 0x6f, 0x72, 0x00, 0x00, 0x00, 0x00,
  0x03, 0x00, 0x00, 0x00, 0x5c, 0x00, 0x00, 0x00, 0x2c, 0x00, 0x00, 0x00,
  0x04, 0x00, 0x00, 0x00, 0xb8, 0xff, 0xff, 0xff, 0x12, 0x00, 0x00, 0x00,
  0x04, 0x00, 0x00, 0x00, 0x13, 0x00, 0x00, 0x00, 0x43, 0x4f, 0x4e, 0x56,
  0x45, 0x52, 0x53, 0x49, 0x4f, 0x4e, 0x5f, 0x4d, 0x45, 0x54, 0x41, 0x44,
  0x41, 0x54, 0x41, 0x00, 0xdc, 0xff, 0xff, 0xff, 0x11, 0x00, 0x00, 0x00,
  0x04, 0x00, 0x00, 0x00, 0x13, 0x00, 0x00, 0x00, 0x6d, 0x69, 0x6e, 0x5f,
  0x72, 0x75, 0x6e, 0x74, 0x69, 0x6d, 0x65, 0x5f, 0x76, 0x65, 0x72, 0x73,
  0x69, 0x6f, 0x6e, 0x00, 0x08, 0x00, 0x0c, 0x00, 0x08, 0x00, 0x04, 0x00,
  0x08, 0x00, 0x00, 0x00, 0x10, 0x00, 0x00, 0x00, 0x04, 0x00, 0x00, 0x00,
  0x13, 0x00, 0x00, 0x00, 0x6d, 0x69, 0x6e, 0x5f, 0x72, 0x75, 0x6e, 0x74,
  0x69, 0x6d, 0x65, 0x5f, 0x76, 0x65, 0x72, 0x73, 0x69, 0x6f, 0x6e, 0x00,
  0x13, 0x00, 0x00, 0x00, 0x24, 0x12, 0x00, 0x00, 0x1c, 0x12, 0x00, 0x00,
  0x04, 0x12, 0x00, 0x00, 0xec, 0x11, 0x00, 0x00, 0xbc, 0x02, 0x00, 0x00,
  0x9c, 0x02, 0x00, 0x00, 0x6c, 0x01, 0x00, 0x00, 0x3c, 0x01, 0x00, 0x00,
  0xe4, 0x00, 0x00, 0x00, 0xdc, 0x00, 0x00, 0x00, 0xd4, 0x00, 0x00, 0x00,
  0xcc, 0x00, 0x00, 0x00, 0xc4, 0x00, 0x00, 0x00, 0xbc, 0x00, 0x00, 0x00,
  0xb4, 0x00, 0x00, 0x00, 0xac, 0x00, 0x00, 0x00, 0x8c, 0x00, 0x00, 0x00,
  0x6c, 0x00, 0x00, 0x00, 0x04, 0x00, 0x00, 0x00, 0x9a, 0xed, 0xff, 0xff,
  0x04, 0x00, 0x00, 0x00, 0x58, 0x00, 0x00, 0x00, 0x0c, 0x00, 0x00, 0x00,
  0x08, 0x00, 0x0e, 0x00, 0x08, 0x00, 0x04, 0x00, 0x08, 0x00, 0x00, 0x00,
  0x10, 0x00, 0x00, 0x00, 0x28, 0x00, 0x00, 0x00, 0x00, 0x00, 0x06, 0x00,
  0x08, 0x00, 0x04, 0x00, 0x06, 0x00, 0x00, 0x00, 0x04, 0x00, 0x00, 0x00,
  0x01, 0x00, 0x00, 0x00, 0xeb, 0x03, 0x00, 0x00, 0x00, 0x00, 0x0a, 0x00,
  0x10, 0x00, 0x0c, 0x00, 0x08, 0x00, 0x04, 0x00, 0x0a, 0x00, 0x00, 0x00,
  0x01, 0x00, 0x00, 0x00, 0x02, 0x00, 0x00, 0x00, 0x04, 0x00, 0x00, 0x00,
  0x06, 0x00, 0x00, 0x00, 0x32, 0x2e, 0x31, 0x36, 0x2e, 0x31, 0x00, 0x00,
  0xfe, 0xed, 0xff, 0xff, 0x04, 0x00, 0x00, 0x00, 0x10, 0x00, 0x00, 0x00,
  0x00, 0x00, 0x00, 0x00, 0x00, 0x00, 0x00, 0x00, 0x00, 0x00, 0x00, 0x00,
  0x00, 0x00, 0x00, 0x00, 0x1a, 0xee, 0xff, 0xff, 0x04, 0x00, 0x00, 0x00,
  0x10, 0x00, 0x00, 0x00, 0x31, 0x2e, 0x31, 0x34, 0x2e, 0x30, 0x00, 0x00,
  0x00, 0x00, 0x00, 0x00, 0x00, 0x00, 0x00, 0x00, 0x40, 0xe4, 0xff, 0xff,
  0x44, 0xe4, 0xff, 0xff, 0x48, 0xe4, 0xff, 0xff, 0x4c, 0xe4, 0xff, 0xff,
  0x50, 0xe4, 0xff, 0xff, 0x54, 0xe4, 0xff, 0xff, 0x58, 0xe4, 0xff, 0xff,
  0x52, 0xee, 0xff, 0xff, 0x04, 0x00, 0x00, 0x00, 0x48, 0x00, 0x00, 0x00,
  0x8b, 0x81, 0x3b, 0xe6, 0xd5, 0xe8, 0x8f, 0xb6, 0x9c, 0xce, 0x2f, 0x7f,
  0x1d, 0x2d, 0x7a, 0x4a, 0x16, 0x10, 0xd2, 0x00, 0x74, 0xcc, 0x5b, 0x7f,
  0x9f, 0x12, 0xf4, 0xa9, 0x06, 0x73, 0x93, 0x9f, 0x7f, 0x43, 0xbc, 0x52,
  0x81, 0x91, 0xd8, 0xa8, 0x37, 0xdd, 0xb0, 0xc8, 0x4a, 0x00, 0x18, 0xbc,
  0x7f, 0x02, 0xe4, 0x46, 0xdc, 0xec, 0xa4, 0x9c, 0x8d, 0xa3, 0x81, 0x9e,
  0x94, 0xff, 0x11, 0x33, 0x44, 0x28, 0x7f, 0xc5, 0x03, 0x2f, 0x5f, 0x54,
  0xa6, 0xee, 0xff, 0xff, 0x04, 0x00, 0x00, 0x00, 0x20, 0x00, 0x00, 0x00,
  0x3f, 0xeb, 0xff, 0xff, 0x10, 0xfb, 0xff, 0xff, 0xd9, 0xf6, 0xff, 0xff,
  0xf9, 0xf0, 0xff, 0xff, 0xbb, 0x25, 0x00, 0x00, 0xfb, 0xeb, 0xff, 0xff,
  0x29, 0xeb, 0xff, 0xff, 0x0d, 0x08, 0x00, 0x00, 0xd2, 0xee, 0xff, 0xff,
  0x04, 0x00, 0x00, 0x00, 0x20, 0x01, 0x00, 0x00, 0x19, 0xb3, 0xe6, 0x0f,
  0x6b, 0xf9, 0xc1, 0xe9, 0xd7, 0x16, 0x45, 0x36, 0x34, 0xa9, 0x96, 0x25,
  0xb0, 0x28, 0x35, 0x9e, 0x2e, 0xd5, 0xfb, 0x25, 0x20, 0x11, 0x39, 0x5a,
  0x4a, 0xe6, 0xcc, 0xd2, 0xbf, 0x13, 0x30, 0x0d, 0x46, 0x83, 0xfb, 0x0c,
  0x81, 0x08, 0xf7, 0xf3, 0xd8, 0xed, 0xe7, 0xc8, 0xf0, 0xc2, 0x3e, 0x21,
  0x5d, 0x04, 0xeb, 0xb7, 0xe3, 0x1a, 0x2b, 0x0a, 0x03, 0x97, 0xd0, 0xf7,
  0xe6, 0x3d, 0x2b, 0x09, 0x33, 0x20, 0x8e, 0x13, 0xc2, 0xe7, 0x08, 0xa7,
  0xfd, 0x0d, 0x26, 0x34, 0x12, 0x3f, 0x00, 0x1d, 0x60, 0x2d, 0x18, 0xd5,
  0x82, 0x0c, 0xff, 0x63, 0x69, 0xc3, 0xc9, 0xde, 0xe6, 0xbc, 0xc8, 0x81,
  0xa4, 0x17, 0xcb, 0x53, 0xfb, 0x30, 0xfe, 0x7d, 0x4e, 0x3b, 0xa3, 0xcb,
  0xc2, 0x11, 0xf5, 0xdb, 0x54, 0xa1, 0xe2, 0xff, 0x93, 0x4b, 0x3f, 0x33,
  0xdc, 0xd2, 0xe5, 0xc0, 0xd6, 0x06, 0xef, 0x20, 0x0d, 0x55, 0x40, 0xf8,
  0xc0, 0x00, 0xf8, 0x03, 0xf6, 0x32, 0xd0, 0x1b, 0x29, 0x47, 0x72, 0x11,
  0xe9, 0x2d, 0x44, 0x9c, 0xe8, 0x46, 0x21, 0xfe, 0xe2, 0x16, 0xc5, 0x1f,
  0x3b, 0x50, 0x4c, 0x2f, 0x37, 0x7f, 0x4b, 0x1c, 0x31, 0xee, 0x72, 0x79,
  0x57, 0x01, 0x49, 0xed, 0x35, 0xc9, 0xee, 0x28, 0xf0, 0x34, 0xbd, 0x35,
  0xda, 0xd0, 0xe6, 0x95, 0xcb, 0xec, 0xbf, 0xd7, 0x36, 0xfb, 0x6b, 0x29,
  0xad, 0x12, 0x24, 0x94, 0x16, 0x50, 0x73, 0x47, 0xf5, 0x2c, 0xb7, 0xb5,
  0x16, 0x3d, 0x00, 0x27, 0xe0, 0x21, 0x1d, 0x04, 0xe7, 0x3d, 0xbe, 0x20,
  0xc7, 0x0b, 0xfe, 0x2e, 0x24, 0x22, 0x09, 0xc4, 0xdf, 0x69, 0xe4, 0x2e,
  0x14, 0xe1, 0xad, 0xf0, 0x48, 0x2e, 0x3b, 0xf4, 0x8a, 0x41, 0xde, 0x09,
  0x1b, 0x62, 0xfa, 0x02, 0xf4, 0xdb, 0xa5, 0xdc, 0x1e, 0x7f, 0x19, 0x2d,
  0xe5, 0xb7, 0xbf, 0xd1, 0x58, 0x14, 0xf9, 0xf5, 0xbe, 0xd1, 0x1b, 0xb5,
  0xa6, 0x41, 0x9f, 0x00, 0x18, 0x1b, 0xcd, 0xf2, 0xed, 0x6c, 0xe1, 0xd0,
  0x1f, 0x1d, 0xca, 0x00, 0x3e, 0x51, 0x03, 0x03, 0xfe, 0xef, 0xff, 0xff,
  0x04, 0x00, 0x00, 0x00, 0x10, 0x00, 0x00, 0x00, 0x92, 0x07, 0x00, 0x00,
  0x7e, 0x13, 0x00, 0x00, 0x86, 0xee, 0xff, 0xff, 0xc3, 0xf6, 0xff, 0xff,
  0x1a, 0xf0, 0xff, 0xff, 0x04, 0x00, 0x00, 0x00, 0x20, 0x0f, 0x00, 0x00,
  0x25, 0xf5, 0xcd, 0xc0, 0xe2, 0x07, 0xc4, 0xd0, 0x04, 0x3a, 0xe7, 0xf4,
  0x14, 0x29, 0x17, 0x24, 0x1c, 0x36, 0x10, 0xc8, 0x37, 0x23, 0x13, 0xb0,
  0x13, 0x2d, 0x0e, 0xdc, 0x26, 0x36, 0x00, 0xec, 0x1d, 0x27, 0x34, 0xe9,
  0xf9, 0x46, 0xf1, 0xe7, 0xbd, 0x5a, 0xe3, 0x17, 0xee, 0x55, 0xd0, 0xf6,
  0x04, 0x3e, 0xff, 0x31, 0x1c, 0x3a, 0xeb, 0x1d, 0xf5, 0x32, 0x05, 0x13,
  0x04, 0x4c, 0xd8, 0xfa, 0x01, 0x00, 0x06, 0xbf, 0x04, 0x24, 0xf0, 0xe6,
  0x22, 0x2a, 0xdc, 0xd5, 0xee, 0xff, 0x24, 0xfc, 0xe1, 0x05, 0xe6, 0xd2,
  0xdd, 0xfc, 0xe7, 0x51, 0x12, 0x21, 0xee, 0xdc, 0x21, 0x34, 0xe4, 0xcb,
  0xf9, 0x15, 0xd7, 0xf5, 0x2f, 0x27, 0x14, 0x04, 0x39, 0x5d, 0x2d, 0x09,
  0x00, 0x1b, 0xdb, 0x04, 0x31, 0x37, 0x1a, 0xbe, 0x45, 0x1d, 0x15, 0x02,
  0x20, 0x48, 0x09, 0xf3, 0x05, 0x34, 0x22, 0xbe, 0xd8, 0x4b, 0x10, 0x1e,
  0xea, 0x4f, 0xc5, 0x0e, 0x21, 0x40, 0xef, 0xf3, 0xfe, 0x2b, 0xd1, 0x03,
  0x08, 0x40, 0x0e, 0x30, 0xe8, 0x1a, 0xc2, 0x18, 0xf2, 0x29, 0xec, 0xb9,
  0x1e, 0x23, 0x26, 0xc3, 0x20, 0x06, 0x28, 0x14, 0xe4, 0x28, 0x03, 0xed,
  0xdb, 0x09, 0xd9, 0xd0, 0xe3, 0x01, 0x08, 0x38, 0x22, 0x04, 0x01, 0x05,
  0xeb, 0xf4, 0xee, 0xf2, 0xff, 0xfc, 0x00, 0xd0, 0x0c, 0x30, 0xfd, 0xf7,
  0x49, 0x2f, 0x0f, 0xf6, 0x00, 0x37, 0xc8, 0xf1, 0x3b, 0x23, 0x0f, 0xdc,
  0xf8, 0x2d, 0x1a, 0xfd, 0xee, 0x42, 0x0d, 0x21, 0x11, 0x35, 0x1e, 0xd5,
  0xf1, 0x0f, 0xec, 0x1c, 0xe8, 0x2a, 0xdb, 0xcd, 0x02, 0x3c, 0x09, 0xc4,
  0x10, 0x26, 0xe6, 0xe5, 0xfd, 0x1e, 0x35, 0x2e, 0x06, 0x3e, 0x03, 0xfa,
  0xfe, 0x43, 0xea, 0xef, 0xdd, 0x08, 0xe5, 0x01, 0xf0, 0x2b, 0x10, 0x10,
  0xf3, 0x36, 0x02, 0xd1, 0xd2, 0xec, 0xde, 0xd2, 0x03, 0x0a, 0xf3, 0xd8,
  0xf4, 0x06, 0xd3, 0x0e, 0x02, 0x13, 0xec, 0xf1, 0x40, 0x2f, 0x02, 0xca,
  0x19, 0x20, 0x01, 0x04, 0x1b, 0x37, 0xb9, 0xce, 0xea, 0x48, 0xb6, 0xec,
  0x13, 0x4c, 0x1e, 0xee, 0x12, 0x22, 0x1f, 0x0e, 0xde, 0x00, 0xca, 0xeb,
  0xef, 0x00, 0xd4, 0x03, 0xd5, 0x0c, 0xec, 0xf1, 0x0e, 0x11, 0x0a, 0xcb,
  0xe5, 0x01, 0xf5, 0xe4, 0xfe, 0x20, 0xd7, 0xbd, 0x01, 0x37, 0x40, 0xdd,
  0xf7, 0x47, 0x1b, 0x0a, 0xfa, 0x3e, 0xf6, 0x1b, 0xd7, 0x1c, 0xf0, 0x04,
  0x1c, 0x43, 0x06, 0x11, 0xe2, 0x25, 0x19, 0xdb, 0xd4, 0x16, 0xdb, 0xe9,
  0xeb, 0x0b, 0xd5, 0xe4, 0xf3, 0xe9, 0xbc, 0xff, 0x05, 0x24, 0xfe, 0xd6,
  0x35, 0xf3, 0xf7, 0xca, 0x0a, 0x2c, 0xe2, 0x01, 0x28, 0x0e, 0xd6, 0xb5,
  0x0e, 0x24, 0xc8, 0xf4, 0xfe, 0x47, 0xc8, 0x20, 0x0c, 0xf8, 0xe9, 0xee,
  0xbc, 0xe8, 0xd1, 0xfa, 0xd7, 0x1e, 0xfc, 0x07, 0xeb, 0x1f, 0xf8, 0x07,
  0xfd, 0x0f, 0xfb, 0xc1, 0xe4, 0x17, 0xf6, 0xb6, 0xd6, 0x18, 0xd6, 0xc1,
  0xe0, 0x23, 0xe8, 0x01, 0x0b, 0xfa, 0xfe, 0x31, 0x25, 0x39, 0x38, 0xe4,
  0xdf, 0x3c, 0xf8, 0x1a, 0x0b, 0x2c, 0x07, 0x0d, 0xde, 0x1f, 0xfe, 0xf1,
  0xe3, 0x2b, 0xdd, 0xd9, 0x0f, 0x00, 0xea, 0x01, 0xe8, 0x19, 0xad, 0xfa,
  0x2a, 0x1b, 0xfc, 0xd9, 0x51, 0x21, 0xf5, 0xc5, 0x17, 0x41, 0xdc, 0xe1,
  0x06, 0x38, 0xdf, 0xc7, 0x0d, 0x28, 0xf0, 0x1c, 0x06, 0xe2, 0xad, 0x0f,
  0xfd, 0xf5, 0x29, 0x1e, 0xbf, 0xd1, 0xea, 0x10, 0xfd, 0x01, 0xed, 0xb8,
  0xe6, 0x03, 0xf7, 0x0d, 0xc5, 0xe8, 0xef, 0xea, 0xb4, 0xde, 0x11, 0xaf,
  0xac, 0xd3, 0xaa, 0xd2, 0xbf, 0xd5, 0x21, 0xe7, 0xfc, 0x25, 0x1f, 0x02,
  0x3b, 0x0f, 0x27, 0xe7, 0x0f, 0x12, 0x10, 0xe8, 0x2e, 0x07, 0x27, 0x0d,
  0xe4, 0x14, 0xb5, 0xfe, 0x0f, 0x0a, 0xe2, 0x28, 0x29, 0xef, 0xeb, 0x60,
  0xe1, 0x04, 0xe4, 0x0e, 0x1e, 0xf7, 0x02, 0xf1, 0x50, 0x16, 0x0c, 0xc0,
  0xfd, 0x02, 0xd2, 0xd3, 0xf2, 0xf8, 0xed, 0x13, 0x08, 0x0e, 0xf2, 0x24,
  0xd0, 0xf1, 0xee, 0xff, 0xed, 0x1a, 0xf3, 0x1e, 0xd8, 0x15, 0xdc, 0xe5,
  0x16, 0x11, 0xfb, 0x96, 0xde, 0x26, 0x1a, 0x0a, 0xdb, 0x10, 0x1d, 0xbf,
  0xf8, 0x15, 0x1e, 0xe9, 0xa9, 0x2f, 0xd9, 0x01, 0xe4, 0x28, 0xcc, 0xe0,
  0x04, 0x21, 0xd9, 0xde, 0x1f, 0x19, 0xf6, 0xe2, 0x19, 0x40, 0xe4, 0xe6,
  0x23, 0x1d, 0x03, 0x27, 0xe1, 0x53, 0xe8, 0x08, 0x03, 0x36, 0xb7, 0x06,
  0x01, 0x20, 0xf7, 0x31, 0xe7, 0x03, 0x0e, 0x1c, 0x05, 0x12, 0x2d, 0xf1,
  0x2e, 0xe1, 0x16, 0xbb, 0xe6, 0xf9, 0xf3, 0x24, 0xdd, 0x30, 0xf9, 0x3b,
  0x36, 0xe8, 0x3b, 0x18, 0xfb, 0xf1, 0xfc, 0xf5, 0xf5, 0x16, 0xee, 0xde,
  0xbe, 0x1b, 0xe6, 0xf3, 0xfe, 0xd2, 0x04, 0x9e, 0xbd, 0xef, 0x05, 0x1d,
  0xdd, 0x22, 0x21, 0xa0, 0xf2, 0x08, 0x07, 0xeb, 0xcf, 0xfa, 0xc2, 0x04,
  0xe1, 0x1a, 0xfb, 0xe6, 0xfd, 0x0b, 0x12, 0xf1, 0x04, 0xff, 0x08, 0xca,
  0x00, 0x38, 0xf3, 0x18, 0x26, 0xfa, 0x02, 0xff, 0xf8, 0x1e, 0xe1, 0xe9,
  0xd6, 0xf4, 0xda, 0x20, 0x30, 0xfd, 0x2a, 0xfd, 0xed, 0xc0, 0x09, 0xff,
  0x2a, 0xec, 0xe4, 0xd4, 0x17, 0x09, 0x5c, 0xe2, 0xe0, 0xfa, 0x28, 0x30,
  0xe1, 0x10, 0xf9, 0x13, 0x36, 0xf5, 0x27, 0x03, 0x13, 0xe8, 0xea, 0xd9,
  0xf8, 0xfa, 0x10, 0x04, 0xcd, 0x14, 0xd9, 0xed, 0xf6, 0xed, 0x37, 0xc0,
  0xcc, 0x00, 0xec, 0x1e, 0xd6, 0xf0, 0xf1, 0x9f, 0xb3, 0x0a, 0x25, 0xe9,
  0xe8, 0x11, 0xe7, 0x0b, 0x0d, 0x18, 0xdd, 0xdc, 0xc3, 0x1b, 0xe5, 0xe8,
  0xe7, 0xf1, 0x0c, 0xd0, 0xdf, 0x30, 0xf7, 0x07, 0x0b, 0x25, 0x28, 0x29,
  0xf7, 0xfa, 0xf7, 0x03, 0xd8, 0x1c, 0xf7, 0x4b, 0x2e, 0x10, 0x0a, 0xe6,
  0xd9, 0xf6, 0xf1, 0xd8, 0x0c, 0x05, 0xe8, 0xca, 0xfa, 0xcf, 0x13, 0xd2,
  0xd8, 0xd6, 0xf0, 0xe4, 0xd3, 0x19, 0xe2, 0xe9, 0x12, 0xee, 0x3c, 0xdc,
  0xe1, 0xfe, 0xd6, 0xe1, 0x1b, 0xe4, 0x20, 0xa7, 0xc5, 0x18, 0xb0, 0xb2,
  0x07, 0x25, 0xe2, 0xb6, 0xc3, 0xe0, 0xea, 0x08, 0xe0, 0xdb, 0x1a, 0xc7,
  0xc1, 0xfe, 0xf5, 0xc7, 0xe5, 0x1b, 0xd2, 0xd5, 0x08, 0x18, 0x09, 0xf9,
  0xdd, 0xf0, 0xb3, 0x2c, 0xda, 0x11, 0x0b, 0xed, 0xe4, 0x08, 0x2c, 0xde,
  0x0a, 0xed, 0x1e, 0x04, 0xf2, 0xf6, 0x07, 0x13, 0xde, 0x1f, 0x0f, 0xed,
  0x22, 0xe6, 0x17, 0xa8, 0xd8, 0x2e, 0xdf, 0x0d, 0x3b, 0x19, 0x1b, 0x0f,
  0x2c, 0x26, 0x04, 0xed, 0xc1, 0x19, 0xcd, 0x01, 0xf8, 0x0c, 0xf7, 0xd9,
  0x23, 0x09, 0x71, 0xff, 0xde, 0xed, 0xfb, 0xf3, 0xe1, 0xdf, 0xef, 0xc1,
  0xd9, 0xdf, 0xbd, 0xd8, 0x0d, 0xe0, 0x02, 0xbc, 0xab, 0xb5, 0x98, 0x07,
  0xc6, 0xb6, 0x13, 0x90, 0xdb, 0xb2, 0xff, 0x81, 0x03, 0xeb, 0xd8, 0xcc,
  0xe5, 0xd2, 0x02, 0xe4, 0xf9, 0xe5, 0xe0, 0x1f, 0xea, 0xee, 0x11, 0x07,
  0xce, 0xf9, 0x11, 0x2e, 0xfd, 0xe7, 0xfd, 0xb4, 0x15, 0x07, 0x31, 0xd6,
  0xfe, 0x19, 0xf5, 0x47, 0x37, 0x0e, 0x2b, 0xeb, 0xf3, 0x18, 0xda, 0x03,
  0x36, 0x08, 0xfa, 0x21, 0x34, 0x17, 0x28, 0xd8, 0xbb, 0x05, 0xe1, 0x27,
  0xfd, 0xfa, 0xdc, 0x16, 0x0d, 0x1c, 0x23, 0x05, 0xd4, 0x21, 0xfb, 0x1c,
  0xfc, 0xf9, 0xbf, 0xde, 0xc0, 0xd2, 0xaa, 0xd7, 0xe3, 0xf8, 0xbd, 0xe9,
  0xb2, 0xec, 0xcb, 0x24, 0xdd, 0xeb, 0xeb, 0xbe, 0xe8, 0xaa, 0x39, 0xa1,
  0xf3, 0x01, 0xf4, 0xb0, 0xe2, 0xfd, 0x2f, 0xd7, 0x07, 0x0b, 0xfa, 0xf9,
  0xfd, 0xf8, 0x33, 0x25, 0xce, 0x0d, 0x09, 0x28, 0xf8, 0xdd, 0x0f, 0xcd,
  0xfe, 0x08, 0x0d, 0xbd, 0xf2, 0x37, 0xd7, 0x34, 0x31, 0x08, 0x03, 0x14,
  0xe7, 0x07, 0xed, 0x03, 0x28, 0x13, 0xfe, 0xf8, 0x54, 0x1f, 0x57, 0xe1,
  0xd3, 0x0e, 0x10, 0x3e, 0xd5, 0xf7, 0xca, 0x23, 0xff, 0xec, 0x1b, 0xfe,
  0x01, 0x15, 0xaa, 0xdd, 0xf1, 0x31, 0x14, 0xcb, 0xe7, 0x13, 0xb2, 0xf8,
  0xe9, 0x0f, 0xd9, 0xfe, 0xe0, 0xea, 0xe1, 0xed, 0xe5, 0xf5, 0x3b, 0xc8,
  0xf8, 0x11, 0x1a, 0xd6, 0xf7, 0x33, 0x1a, 0xfc, 0x04, 0x2c, 0x10, 0x01,
  0xe2, 0x09, 0xea, 0x21, 0xfb, 0xe4, 0x0b, 0xf1, 0xfb, 0xf1, 0x19, 0x17,
  0x19, 0xfd, 0x1f, 0xc9, 0x26, 0xfc, 0x2d, 0xd8, 0x08, 0x29, 0xe8, 0x2c,
  0xf7, 0xef, 0x33, 0x28, 0xfa, 0x0a, 0xff, 0xd6, 0x3a, 0x0a, 0x1b, 0xe7,
  0x7d, 0x0a, 0x33, 0xdc, 0x08, 0x27, 0xd9, 0x4e, 0xe6, 0x18, 0xc6, 0x1d,
  0xf0, 0xe8, 0xff, 0xf6, 0xf1, 0xf1, 0xe0, 0xcb, 0xf9, 0xd8, 0xe5, 0xbd,
  0xf7, 0x1f, 0xc5, 0x01, 0x24, 0xea, 0xe9, 0xdc, 0xd0, 0x02, 0xe3, 0x0b,
  0x0c, 0xe8, 0x0f, 0xcb, 0xf5, 0x01, 0x19, 0xe6, 0xf1, 0x34, 0xfc, 0xf7,
  0x2d, 0x21, 0x0a, 0xef, 0xd8, 0x30, 0xa8, 0x3a, 0xc0, 0x16, 0xff, 0x13,
  0xf8, 0xf2, 0x00, 0xfa, 0x15, 0xee, 0xdc, 0xc8, 0x4c, 0x27, 0x21, 0xc6,
  0x13, 0x0c, 0xfa, 0x32, 0xfc, 0x19, 0x1f, 0x21, 0xf0, 0xf2, 0xf3, 0x0a,
  0x46, 0x0d, 0xd7, 0xec, 0x45, 0xed, 0x32, 0x05, 0xf8, 0x05, 0xd3, 0x22,
  0xe8, 0x1d, 0x04, 0x07, 0x1f, 0xf2, 0x37, 0x13, 0xf5, 0x1d, 0xe5, 0xee,
  0x1e, 0x13, 0xc0, 0xbf, 0xe7, 0x0a, 0xd5, 0xe9, 0x1e, 0xf4, 0x0e, 0xd9,
  0xef, 0xd8, 0xe9, 0x1c, 0xf6, 0x0a, 0xeb, 0xd6, 0x0a, 0xe7, 0x1b, 0xd3,
  0xc0, 0xf7, 0xb3, 0xf2, 0xeb, 0x0a, 0x02, 0x07, 0x1a, 0x01, 0x02, 0x15,
  0x09, 0x14, 0xd6, 0x0c, 0x10, 0x31, 0x0d, 0x51, 0x2f, 0x0e, 0x08, 0x25,
  0x57, 0x2b, 0x17, 0xfa, 0x27, 0xe3, 0x39, 0x1d, 0x31, 0xfd, 0x32, 0x2a,
  0x02, 0xee, 0xe7, 0xfc, 0x2b, 0x0a, 0x13, 0x15, 0x39, 0x02, 0x2b, 0xf0,
  0x12, 0x09, 0xf9, 0x02, 0xe9, 0xf8, 0xf9, 0x07, 0x28, 0x0a, 0xea, 0xf2,
  0x29, 0xe9, 0x19, 0xeb, 0x1c, 0xf8, 0x08, 0xf2, 0xfd, 0x05, 0xf5, 0x01,
  0xf0, 0x14, 0xe1, 0xe6, 0xc7, 0x2f, 0xcd, 0x1b, 0x31, 0x10, 0x07, 0xe0,
  0x19, 0x19, 0x16, 0xbb, 0xdb, 0x2d, 0xba, 0x1a, 0x0c, 0x13, 0xfd, 0xe9,
  0x08, 0xfa, 0x2c, 0x1e, 0x0f, 0xf3, 0x17, 0xfc, 0x2e, 0x15, 0x36, 0xee,
  0x26, 0x1c, 0x10, 0x08, 0x21, 0x25, 0xf7, 0xd5, 0x02, 0x1b, 0xc9, 0x37,
  0x32, 0xe3, 0x29, 0x00, 0xe9, 0x21, 0xe1, 0x18, 0x32, 0x18, 0x07, 0x0c,
  0x2e, 0xb8, 0x13, 0x9a, 0x24, 0x12, 0x0c, 0xf4, 0x08, 0x1e, 0xe0, 0x39,
  0x19, 0xf4, 0xee, 0xfa, 0xf3, 0xf6, 0xf2, 0x04, 0x1c, 0x03, 0xe9, 0xde,
  0x06, 0xe4, 0x22, 0x01, 0xdc, 0x06, 0xfa, 0xdf, 0xe0, 0x21, 0xd2, 0xd6,
  0x21, 0x12, 0x0d, 0xf4, 0x04, 0xe7, 0x0f, 0xf1, 0xc9, 0xf2, 0xc2, 0x07,
  0xd6, 0x13, 0x16, 0x0f, 0xf1, 0x1c, 0xdc, 0x28, 0x05, 0x03, 0xe0, 0xbd,
  0x0f, 0x02, 0x1f, 0xd7, 0x11, 0xe6, 0xed, 0xd9, 0xf7, 0x01, 0xed, 0xf1,
  0x18, 0xe9, 0xc9, 0x3d, 0x1a, 0xd0, 0x33, 0x19, 0xe5, 0x19, 0xba, 0xda,
  0x3e, 0xdd, 0xfe, 0xc4, 0x14, 0xd5, 0xfd, 0xa8, 0x0f, 0x01, 0xf2, 0xeb,
  0x15, 0x07, 0x12, 0x12, 0x06, 0x20, 0xc3, 0xf9, 0xef, 0x2d, 0xd7, 0xfd,
  0x1d, 0x12, 0x04, 0x04, 0xfa, 0xf7, 0xeb, 0x38, 0x09, 0x15, 0xe2, 0xd2,
  0x00, 0x01, 0xee, 0x00, 0xd8, 0x17, 0xc9, 0xe0, 0x0e, 0xd9, 0x0e, 0xd6,
  0xe5, 0x2d, 0xce, 0xef, 0x05, 0x15, 0x36, 0x2b, 0xf3, 0x1d, 0xee, 0x23,
  0x17, 0x1f, 0x2d, 0xcf, 0xfc, 0x27, 0x20, 0xff, 0xff, 0xeb, 0xd7, 0x52,
  0xe2, 0xe0, 0xd6, 0xe0, 0xda, 0xf5, 0xfe, 0x2c, 0x16, 0xf2, 0xfb, 0x0d,
  0xdf, 0x1c, 0xdb, 0xc9, 0xf7, 0x0e, 0xba, 0x04, 0x03, 0xdb, 0xf7, 0x9c,
  0x05, 0xec, 0x1b, 0xf1, 0x2a, 0x20, 0x4a, 0xec, 0x10, 0x22, 0x1c, 0xe3,
  0x22, 0x20, 0xe9, 0x11, 0x1f, 0x1c, 0xfc, 0xfe, 0x04, 0xfe, 0xdf, 0x07,
  0x0f, 0x29, 0xee, 0xdd, 0xf2, 0x08, 0xf7, 0x55, 0x02, 0xe7, 0xe2, 0xe6,
  0xf2, 0xec, 0x39, 0xce, 0xce, 0x1e, 0xeb, 0xc0, 0x1e, 0x2d, 0xd8, 0x0b,
  0xf7, 0x3c, 0xa5, 0x20, 0x15, 0x0f, 0x0d, 0xf5, 0xf1, 0xf6, 0x0b, 0x0d,
  0x02, 0x0b, 0xd9, 0x24, 0x0f, 0xd3, 0x36, 0xdc, 0xdd, 0xeb, 0xdc, 0xeb,
  0x36, 0x17, 0xf9, 0xc7, 0x0f, 0x05, 0xe5, 0xe6, 0xf9, 0x12, 0xb2, 0x10,
  0x0f, 0xfd, 0xfb, 0xb9, 0x1b, 0xf1, 0x25, 0xe1, 0x2d, 0x09, 0x09, 0xd9,
  0x26, 0x1d, 0x14, 0xe7, 0x0a, 0xf2, 0xd4, 0x2d, 0x01, 0x0b, 0xe1, 0x28,
  0x24, 0x07, 0x02, 0xf5, 0xff, 0x14, 0xed, 0x06, 0xe4, 0x07, 0xdf, 0x18,
  0xef, 0x0b, 0xfc, 0xe5, 0x22, 0xba, 0x36, 0xd6, 0xf5, 0x17, 0xea, 0xac,
  0x2e, 0x2d, 0xfd, 0xeb, 0x25, 0x29, 0x0d, 0xf6, 0x25, 0x0b, 0xf2, 0xf9,
  0xf2, 0x16, 0x2c, 0x03, 0xf6, 0xf0, 0x14, 0x2f, 0x01, 0xfe, 0x2b, 0xdd,
  0x04, 0xf3, 0xfb, 0xf1, 0x06, 0xd8, 0x22, 0xc8, 0x15, 0xfe, 0x10, 0xd3,
  0x22, 0x02, 0xe6, 0xe9, 0x36, 0x0f, 0xff, 0xe6, 0x3a, 0x25, 0xf9, 0x0a,
  0x3c, 0xff, 0x11, 0xdc, 0x24, 0xf4, 0xed, 0x00, 0x26, 0xe5, 0xff, 0x12,
  0x38, 0x2d, 0x1c, 0x12, 0x1d, 0xf1, 0x0b, 0x21, 0x0b, 0x04, 0xfd, 0x10,
  0x1b, 0x25, 0xf4, 0xcc, 0x01, 0x03, 0xe3, 0xc9, 0xe9, 0xe7, 0xdc, 0x32,
  0x0c, 0x1f, 0xb8, 0xb3, 0x34, 0x1b, 0xed, 0xf4, 0x05, 0x00, 0xf8, 0x2c,
  0x24, 0x0c, 0x29, 0xdc, 0xff, 0x03, 0xf7, 0x13, 0xe2, 0xf6, 0x0f, 0x19,
  0x18, 0xfb, 0x2a, 0xae, 0xd5, 0xcd, 0xe5, 0xfb, 0xfa, 0xe0, 0x0b, 0xc7,
  0x4d, 0xd0, 0x2a, 0xe8, 0x28, 0x1c, 0x0b, 0xdd, 0x3e, 0x0b, 0x05, 0xfd,
  0x2c, 0x3e, 0x12, 0xf9, 0x13, 0x1b, 0x1c, 0xec, 0x14, 0xea, 0xc5, 0x1d,
  0x3b, 0xe6, 0x1c, 0x02, 0x2f, 0xfb, 0x2c, 0x1e, 0x26, 0xdd, 0x29, 0x1d,
  0xfe, 0x16, 0xc1, 0xff, 0x25, 0x19, 0x1f, 0xa9, 0x12, 0x09, 0xe7, 0x03,
  0xfe, 0x0b, 0xcf, 0x57, 0x19, 0x0e, 0x02, 0x03, 0x23, 0x03, 0x30, 0xfe,
  0x13, 0x19, 0x03, 0x31, 0x19, 0x08, 0x34, 0xd7, 0x09, 0x0a, 0x37, 0xe2,
  0x10, 0xf5, 0x04, 0x08, 0x1f, 0x0e, 0x31, 0xc8, 0xf1, 0x07, 0xfb, 0xd7,
  0x0c, 0x07, 0x0c, 0x04, 0x01, 0x16, 0x35, 0x44, 0x20, 0x09, 0x59, 0x3e,
  0x05, 0xe9, 0x13, 0x01, 0x0f, 0xd2, 0xdc, 0xa8, 0xfc, 0xf6, 0x0f, 0x3a,
  0xea, 0xd7, 0xe8, 0x52, 0xd2, 0xee, 0xef, 0x03, 0xc9, 0xc3, 0xe1, 0xfb,
  0xf5, 0xec, 0x00, 0xfb, 0x00, 0xae, 0x39, 0x0c, 0x41, 0x9e, 0x11, 0x0c,
  0x04, 0xdc, 0x37, 0x29, 0xf9, 0xec, 0xf6, 0xe4, 0x0b, 0xf0, 0x0b, 0xe3,
  0x29, 0xca, 0x08, 0xfd, 0x0d, 0xde, 0x04, 0xfc, 0xe2, 0xd1, 0x02, 0x49,
  0xfb, 0xea, 0x06, 0x25, 0xf6, 0xf8, 0x09, 0x0e, 0x0d, 0xe8, 0xfb, 0x04,
  0x49, 0xdf, 0x47, 0x41, 0x0d, 0x0f, 0xf9, 0xdd, 0xf4, 0xf1, 0x1b, 0xfd,
  0xbe, 0xf0, 0xf7, 0x23, 0x21, 0xe4, 0x09, 0x04, 0xce, 0xe1, 0x07, 0xcc,
  0xd4, 0xb2, 0xca, 0x0d, 0x1b, 0xd3, 0x23, 0xf7, 0xd8, 0xde, 0xf7, 0x14,
  0xe3, 0xbe, 0xfc, 0x06, 0xe5, 0xcd, 0xff, 0xef, 0xcb, 0xb9, 0xd8, 0x31,
  0x17, 0xab, 0xf5, 0xed, 0x34, 0xd6, 0x2e, 0x13, 0x08, 0xe2, 0xfd, 0xf2,
  0x0c, 0xbf, 0x0d, 0xea, 0x14, 0xd8, 0x01, 0xe4, 0x19, 0xe5, 0x10, 0xe7,
  0x0f, 0xc8, 0x2b, 0x19, 0xe4, 0xe3, 0x07, 0x56, 0xe5, 0xd1, 0xcd, 0xfe,
  0x09, 0xfc, 0xd7, 0x1b, 0x14, 0xf6, 0x19, 0x40, 0x11, 0x11, 0x19, 0xac,
  0x0a, 0xed, 0x1f, 0xfa, 0xe5, 0xf6, 0x26, 0x1f, 0xe9, 0xed, 0x14, 0x17,
  0xd7, 0xbd, 0x1b, 0x15, 0xba, 0xd4, 0x00, 0x07, 0x01, 0xb7, 0x45, 0x12,
  0xca, 0xbc, 0xd4, 0x28, 0xdb, 0xd2, 0x07, 0xfa, 0x0d, 0xd9, 0xef, 0xd8,
  0xe1, 0xc8, 0xeb, 0x0d, 0x1d, 0xe1, 0x1d, 0x0e, 0x33, 0x02, 0x25, 0x00,
  0xee, 0xb5, 0xd3, 0x1e, 0xf0, 0xe0, 0x13, 0x09, 0xfa, 0xc4, 0xe2, 0xf9,
  0x07, 0xc7, 0xe8, 0xfb, 0x09, 0xc0, 0x17, 0xde, 0x1e, 0xc2, 0x0f, 0x03,
  0xfc, 0xf3, 0xee, 0xd1, 0x22, 0xe5, 0xfd, 0x19, 0x29, 0x01, 0x06, 0x1d,
  0x18, 0x17, 0x26, 0x09, 0x02, 0xf9, 0x28, 0x06, 0x04, 0xeb, 0x16, 0x18,
  0xe9, 0xf9, 0xf8, 0x37, 0xdd, 0xce, 0xdd, 0xec, 0xcf, 0xa0, 0x23, 0x3b,
  0xff, 0xbc, 0x3f, 0x22, 0xe3, 0xd3, 0x0e, 0x07, 0x01, 0xde, 0xe2, 0xfd,
  0x1f, 0xcb, 0x20, 0xf2, 0x17, 0xe9, 0x2b, 0x03, 0x31, 0xe0, 0xfc, 0xdd,
  0xff, 0xf2, 0x19, 0x45, 0x16, 0xd7, 0x1c, 0x14, 0x0a, 0xee, 0x42, 0x2e,
  0xf4, 0xeb, 0xc4, 0x37, 0xf2, 0xca, 0xcd, 0xdc, 0xfe, 0xa6, 0xfc, 0xfb,
  0x1d, 0xc0, 0x18, 0x2a, 0xe4, 0xe1, 0xcf, 0xd7, 0x0f, 0xd2, 0xd3, 0x11,
  0x19, 0xb5, 0x1e, 0x35, 0xf8, 0xef, 0x02, 0x28, 0x30, 0xfb, 0x13, 0x22,
  0xcf, 0xe6, 0xf4, 0x52, 0xcb, 0xdb, 0xf4, 0x38, 0xf6, 0x0d, 0xf2, 0x2a,
  0xee, 0xef, 0x35, 0x60, 0xd6, 0xdf, 0x1e, 0xf3, 0xfa, 0xc6, 0x33, 0xde,
  0x08, 0xe3, 0x05, 0xe3, 0x5e, 0x06, 0x46, 0x2f, 0x24, 0x05, 0x16, 0x21,
  0x32, 0xe4, 0x20, 0xfd, 0xf1, 0xf8, 0xf4, 0x25, 0x35, 0xe3, 0xd7, 0x33,
  0x48, 0x09, 0x5a, 0x44, 0x24, 0xff, 0xfb, 0x33, 0xf5, 0x12, 0xf9, 0xe9,
  0xe5, 0xbd, 0xd3, 0x0b, 0x07, 0xe2, 0x05, 0xdb, 0xc7, 0xd5, 0xf7, 0x06,
  0x25, 0xd8, 0xdd, 0x01, 0x19, 0xcf, 0x23, 0x0b, 0xc6, 0xe2, 0x18, 0xfd,
  0x32, 0xdb, 0x3d, 0x0c, 0xb7, 0xec, 0xe1, 0x2e, 0xd8, 0xd7, 0x14, 0x31,
  0xf1, 0xf3, 0x37, 0x31, 0x0f, 0xe5, 0x3c, 0x2e, 0x03, 0xfe, 0xfd, 0xf0,
  0x28, 0x1d, 0x38, 0xe4, 0xd8, 0x1c, 0xd0, 0xcc, 0x3a, 0x1a, 0x3f, 0x07,
  0x18, 0xf8, 0x23, 0x44, 0x25, 0xea, 0x1e, 0xec, 0x1a, 0x0b, 0xfb, 0x2f,
  0x1e, 0x34, 0xed, 0x54, 0x5e, 0x0a, 0x5b, 0x31, 0x06, 0x04, 0xf1, 0xfa,
  0xeb, 0xdc, 0xf4, 0xfa, 0xcd, 0xde, 0xbb, 0x0e, 0xe9, 0xc4, 0x03, 0xf4,
  0xdc, 0xfa, 0xfc, 0xee, 0x19, 0xf1, 0x2c, 0xfa, 0x1d, 0x12, 0x16, 0xfc,
  0xe8, 0x25, 0xe7, 0xc5, 0x2f, 0xd0, 0x49, 0xd7, 0xfe, 0xe4, 0xe5, 0xec,
  0xd3, 0x11, 0x0b, 0x23, 0x17, 0xf5, 0x15, 0x17, 0x29, 0xe3, 0xf5, 0x11,
  0xe2, 0x00, 0xe2, 0xca, 0x09, 0x09, 0x36, 0xd9, 0xee, 0x01, 0xfd, 0xe8,
  0x1e, 0x0f, 0x13, 0xf9, 0x04, 0x07, 0x03, 0x47, 0x23, 0x02, 0xe2, 0xe7,
  0x32, 0x06, 0xee, 0x16, 0x2e, 0xfe, 0xbd, 0x2a, 0x64, 0x04, 0x28, 0xe8,
  0x2b, 0xe8, 0x1c, 0x24, 0x1d, 0xde, 0xf9, 0x01, 0xe1, 0xe9, 0x09, 0x22,
  0xf3, 0xf6, 0x10, 0xf4, 0xe9, 0xe8, 0x01, 0xf4, 0x08, 0xb7, 0x2a, 0x08,
  0xf9, 0xfe, 0x12, 0x0b, 0xfe, 0xe8, 0xfc, 0xe3, 0x13, 0xeb, 0x0d, 0xe6,
  0x07, 0xf7, 0x07, 0x00, 0xd0, 0x13, 0xcd, 0x45, 0x10, 0x2c, 0xeb, 0xe3,
  0x1d, 0xe0, 0x00, 0xf0, 0xde, 0x18, 0xcf, 0xdf, 0x19, 0xf0, 0x03, 0x40,
  0x18, 0xdd, 0x2c, 0x20, 0x18, 0xff, 0x25, 0x24, 0xfb, 0x2d, 0xf7, 0x4e,
  0x2b, 0x18, 0xf1, 0x02, 0x1b, 0x17, 0x05, 0x49, 0x22, 0x27, 0x0c, 0x03,
  0x3f, 0x1f, 0x20, 0xf6, 0x1b, 0xf5, 0xf5, 0x1d, 0x0c, 0xe4, 0x1e, 0xf4,
  0x10, 0xdb, 0xf9, 0x1d, 0xfc, 0xe0, 0x13, 0xfe, 0xad, 0x17, 0xda, 0xea,
  0x1d, 0xd8, 0xf3, 0x16, 0x0e, 0xe9, 0x32, 0xe1, 0xd0, 0xfd, 0xcd, 0x13,
  0x21, 0x15, 0x07, 0xec, 0xec, 0xff, 0x10, 0x10, 0xc0, 0x16, 0x9a, 0x14,
  0x24, 0xfc, 0xec, 0xd9, 0x29, 0xe7, 0x32, 0xfa, 0xba, 0x05, 0xb1, 0x08,
  0x0b, 0xe7, 0x35, 0x4c, 0xf1, 0x0a, 0xe2, 0x15, 0x44, 0xff, 0x34, 0x0c,
  0xfa, 0xea, 0xcd, 0x19, 0x48, 0x0e, 0x25, 0x06, 0x23, 0x18, 0xf4, 0x6a,
  0x4e, 0xef, 0x0f, 0x25, 0x38, 0xf2, 0x39, 0x17, 0x10, 0xf2, 0x20, 0x25,
  0x0c, 0xf5, 0x27, 0x0d, 0x1b, 0x11, 0x1a, 0x14, 0x08, 0xc3, 0xfa, 0xed,
  0xd5, 0xe0, 0xed, 0xe8, 0x1a, 0xef, 0x07, 0xfc, 0x21, 0xdd, 0xf7, 0xca,
  0xc8, 0x1d, 0xf9, 0xf9, 0x1a, 0x22, 0xf9, 0x1b, 0xf5, 0x0d, 0x11, 0x25,
  0x27, 0x2d, 0xeb, 0x0a, 0x35, 0xfe, 0x1b, 0x33, 0x0b, 0x1e, 0x1d, 0x04,
  0xf0, 0x0c, 0xec, 0xfc, 0x0a, 0x12, 0x42, 0x16, 0xf6, 0x0a, 0xd2, 0x5b,
  0x3d, 0xde, 0x31, 0x34, 0xf7, 0x08, 0xf4, 0x3f, 0x1b, 0xfc, 0x26, 0x2d,
  0x44, 0x26, 0x1d, 0x59, 0x49, 0x1c, 0x25, 0x0d, 0x2e, 0xff, 0x18, 0x34,
  0xfc, 0x17, 0x13, 0x09, 0x33, 0x0f, 0x5f, 0xeb, 0x17, 0xfa, 0xe2, 0x33,
  0x11, 0xfd, 0xfa, 0x02, 0xff, 0xfc, 0xf2, 0x0f, 0x1c, 0x03, 0xe2, 0xc6,
  0x0c, 0xf0, 0xff, 0xe3, 0xe4, 0xf1, 0xec, 0x33, 0x06, 0xe6, 0x1d, 0xef,
  0xd6, 0x0b, 0xfa, 0x01, 0xf9, 0xdc, 0x1f, 0x39, 0x4b, 0xe1, 0x32, 0x10,
  0x23, 0xfc, 0x0c, 0x19, 0xf5, 0x03, 0xc2, 0xe3, 0x22, 0x0b, 0x05, 0xf2,
  0xfa, 0x20, 0x16, 0x24, 0x12, 0x1f, 0x49, 0x34, 0xfa, 0x2e, 0x2b, 0x60,
  0x6d, 0x40, 0x39, 0x1d, 0x58, 0x1c, 0x1f, 0x47, 0x21, 0x38, 0xf7, 0x78,
  0x1a, 0xf3, 0xf7, 0x33, 0x13, 0x16, 0x2b, 0x24, 0x2b, 0xee, 0xf1, 0xf3,
  0x19, 0xd9, 0xef, 0xe9, 0x16, 0x27, 0xf6, 0xfa, 0x23, 0x17, 0xfb, 0x36,
  0x23, 0x1c, 0xeb, 0x2b, 0xff, 0xe4, 0x09, 0xb6, 0xd1, 0xed, 0xcb, 0xf2,
  0x1a, 0x10, 0x0b, 0xf8, 0xcd, 0xcf, 0xe4, 0xfb, 0xb2, 0x02, 0xc4, 0x1e,
  0x2b, 0xf9, 0x0d, 0xca, 0x1e, 0xf2, 0x27, 0xbc, 0x11, 0xf3, 0xda, 0xef,
  0x02, 0x09, 0x17, 0xf5, 0x32, 0x00, 0x43, 0x2c, 0x5a, 0x0b, 0x65, 0x07,
  0x09, 0x2c, 0x1b, 0x1c, 0x51, 0x41, 0x5c, 0xf0, 0x3f, 0x41, 0xec, 0x2a,
  0x16, 0x42, 0xd8, 0x65, 0x07, 0x1f, 0x24, 0x24, 0x1a, 0x11, 0xd9, 0x29,
  0x30, 0xfb, 0x19, 0xf9, 0x0b, 0x08, 0xf8, 0xea, 0x05, 0xeb, 0x0d, 0xa6,
  0xf1, 0x2b, 0xef, 0x32, 0xf7, 0xfb, 0xe3, 0x4d, 0x24, 0xea, 0x21, 0xd6,
  0xc9, 0x11, 0x07, 0xe3, 0x10, 0x04, 0x06, 0xea, 0xb5, 0xcf, 0x0d, 0xe3,
  0x9f, 0xff, 0xcc, 0x1b, 0x21, 0xf2, 0x23, 0xbf, 0x11, 0x09, 0x49, 0xf5,
  0xf5, 0x0b, 0x04, 0x03, 0xdf, 0x0f, 0x30, 0x18, 0xde, 0xe9, 0xfe, 0x52,
  0x2b, 0xd2, 0x3d, 0xf8, 0xee, 0x0a, 0x27, 0x14, 0x1d, 0xe4, 0x10, 0xdc,
  0xeb, 0xe0, 0xde, 0x51, 0x19, 0xf7, 0xe1, 0x38, 0x12, 0xd9, 0x08, 0x04,
  0xf1, 0x01, 0xdb, 0xef, 0x0c, 0xf0, 0x3c, 0xe5, 0x22, 0x23, 0x0c, 0x1e,
  0xfc, 0x2b, 0xe7, 0xfb, 0xf5, 0xf9, 0x0c, 0x29, 0xd0, 0xf8, 0xdd, 0x26,
  0x18, 0xd0, 0x2a, 0xf1, 0xf3, 0xfd, 0xe9, 0xbd, 0xe2, 0xf5, 0x29, 0x2e,
  0xb1, 0xce, 0x04, 0xf0, 0x9d, 0xeb, 0xa6, 0xfd, 0x0c, 0x09, 0x10, 0xa4,
  0x14, 0x00, 0x11, 0xf6, 0x01, 0x02, 0xfa, 0xda, 0x12, 0x06, 0x3a, 0x0a,
  0xfa, 0x01, 0x11, 0x5a, 0xf4, 0xff, 0x17, 0x0d, 0xc9, 0x15, 0x0d, 0x07,
  0x1c, 0x1f, 0x42, 0x07, 0x15, 0x11, 0x01, 0x47, 0xe7, 0xec, 0xfd, 0x44,
  0x17, 0xf0, 0x13, 0x42, 0xe8, 0xe3, 0xf0, 0x16, 0xf4, 0xe1, 0x5c, 0xcf,
  0x18, 0xe1, 0x05, 0x18, 0x01, 0xfc, 0x18, 0xdd, 0xc8, 0x09, 0xef, 0x02,
  0xca, 0xf1, 0xda, 0x25, 0xef, 0xf5, 0xff, 0xfe, 0xf3, 0xfb, 0x15, 0xea,
  0xf2, 0xd7, 0x39, 0xf6, 0xc5, 0xe1, 0x07, 0xf9, 0xad, 0x13, 0xcd, 0xe5,
  0xe7, 0xf8, 0x3d, 0xc6, 0x18, 0xee, 0xf3, 0x10, 0xfd, 0x24, 0xef, 0x20,
  0xfe, 0xe9, 0x37, 0x41, 0x15, 0x0b, 0x2e, 0x2a, 0x3d, 0x14, 0x33, 0xf4,
  0x02, 0x17, 0x05, 0x34, 0x27, 0xf8, 0x31, 0xee, 0xe8, 0x0c, 0x14, 0x4b,
  0xe9, 0x33, 0xcf, 0x38, 0x2c, 0x19, 0x46, 0x07, 0x08, 0xee, 0x11, 0xfa,
  0x0d, 0xfb, 0x01, 0xf6, 0x25, 0xe9, 0x22, 0xf9, 0xe7, 0xd8, 0x0e, 0xba,
  0xd2, 0x0e, 0xee, 0xdf, 0xd1, 0xfd, 0xd3, 0x1e, 0xe5, 0xef, 0xf6, 0xe2,
  0xda, 0x1b, 0xc1, 0xea, 0x0c, 0xe7, 0x37, 0xdf, 0xd0, 0xf6, 0xf2, 0xc6,
  0xe5, 0x1f, 0xc8, 0x00, 0x0b, 0xe9, 0x1d, 0x05, 0x08, 0xef, 0x10, 0xee,
  0xd9, 0x0b, 0xf1, 0xf0, 0xf4, 0x29, 0xda, 0x08, 0x0d, 0x08, 0xef, 0xf9,
  0xfa, 0xfb, 0x04, 0xde, 0xfb, 0xec, 0x04, 0x22, 0x21, 0xf0, 0x0b, 0xcc,
  0xe4, 0xbd, 0x01, 0xfe, 0xfe, 0x00, 0xe4, 0x27, 0x4e, 0xff, 0x3d, 0xd7,
  0x1b, 0xf4, 0xe5, 0xe3, 0x07, 0xfd, 0x05, 0xb8, 0xf6, 0xf0, 0xf2, 0x05,
  0xe5, 0xc5, 0xdb, 0xf7, 0xe5, 0x00, 0xfa, 0xed, 0xe6, 0xe1, 0xe7, 0x26,
  0x0f, 0x0f, 0x20, 0xa7, 0xcd, 0x09, 0xd5, 0xf4, 0xf2, 0x0d, 0x32, 0xfd,
  0xbb, 0x1b, 0xd1, 0xf3, 0xf1, 0x18, 0x0d, 0x54, 0xe7, 0xfd, 0xf6, 0x0b,
  0x24, 0xe0, 0x26, 0xed, 0x11, 0xe0, 0x2d, 0xfd, 0xfb, 0x07, 0x0e, 0x1a,
  0x17, 0x0a, 0xeb, 0xfd, 0xee, 0x03, 0xd7, 0xe7, 0xf9, 0xf9, 0x29, 0x2b,
  0x06, 0xd7, 0x27, 0x1a, 0xec, 0xcd, 0x0a, 0x3b, 0x10, 0xea, 0x1b, 0x25,
  0x30, 0x02, 0x5c, 0xef, 0x07, 0xc9, 0x10, 0x09, 0x13, 0x00, 0x10, 0xc4,
  0xe3, 0xf4, 0xf8, 0x37, 0xe6, 0x06, 0x09, 0x27, 0xfc, 0x05, 0x16, 0x11,
  0x00, 0x08, 0x07, 0x25, 0x16, 0x23, 0x1f, 0xc1, 0x0b, 0x16, 0xe3, 0xf7,
  0x13, 0xf1, 0x4f, 0x01, 0xf3, 0x00, 0xe2, 0x17, 0xde, 0x2e, 0xfc, 0x5c,
  0xf8, 0x10, 0x1c, 0x1e, 0xf7, 0xf3, 0xf3, 0x0d, 0xed, 0xf0, 0x3c, 0x02,
  0xf5, 0xf6, 0x25, 0xfa, 0xfa, 0xcf, 0x1a, 0x17, 0x06, 0x1c, 0x10, 0xe3,
  0x18, 0x06, 0x0e, 0x0c, 0xf6, 0xf0, 0xf8, 0x04, 0xf7, 0xd5, 0x37, 0x14,
  0x24, 0x2d, 0xee, 0x37, 0x34, 0xd5, 0x06, 0x29, 0xf8, 0xc9, 0xf9, 0xcd,
  0x2e, 0xd6, 0x09, 0xea, 0xf5, 0xb3, 0xf2, 0x3f, 0xf8, 0xca, 0xe3, 0xfb,
  0x23, 0x0b, 0x03, 0xba, 0xef, 0x1e, 0x0b, 0x10, 0x00, 0x0b, 0x15, 0xb1,
  0x0d, 0x10, 0x18, 0xcf, 0xf4, 0xea, 0x42, 0x3a, 0x1c, 0x04, 0x4a, 0x05,
  0x00, 0x22, 0x1c, 0x55, 0xf0, 0xff, 0x18, 0x24, 0xc2, 0xf3, 0xdf, 0x1e,
  0xda, 0xf3, 0x06, 0x1a, 0x0b, 0xd2, 0x25, 0xec, 0x0a, 0xd8, 0x14, 0xf8,
  0x15, 0xea, 0x09, 0xf4, 0x01, 0xc9, 0xe6, 0xfb, 0x18, 0x12, 0x15, 0xc2,
  0x03, 0xe2, 0x06, 0x16, 0xd7, 0x3a, 0xb1, 0x63, 0x0d, 0xe2, 0x28, 0x40,
  0xeb, 0xb0, 0x0c, 0xd4, 0xfe, 0xe5, 0x2e, 0xc1, 0xee, 0xd9, 0x25, 0x3e,
  0xf7, 0xe3, 0xed, 0xeb, 0xed, 0xe9, 0x2c, 0xc2, 0xcc, 0x03, 0xef, 0x1a,
  0x0c, 0x08, 0x2a, 0x06, 0xdf, 0xec, 0x0e, 0x16, 0x11, 0xee, 0x25, 0x0f,
  0x19, 0x1b, 0x49, 0xdb, 0x04, 0xe0, 0x03, 0x30, 0xed, 0xfc, 0xf3, 0x1c,
  0xc5, 0xfc, 0x10, 0x29, 0xe1, 0xea, 0xc3, 0x06, 0xfa, 0xde, 0x1a, 0xd2,
  0xec, 0x12, 0x0b, 0xe2, 0xdc, 0x01, 0xf8, 0x1b, 0x1e, 0x24, 0x00, 0xfc,
  0xfd, 0x24, 0x0b, 0xfb, 0x19, 0xf6, 0x15, 0x1d, 0x0d, 0x34, 0xfb, 0x3c,
  0x0f, 0xdc, 0x37, 0x47, 0xc6, 0xde, 0x29, 0x21, 0xf4, 0xd2, 0x08, 0xfd,
  0x02, 0xda, 0xe9, 0xf2, 0x1a, 0x00, 0xf0, 0xf4, 0xf9, 0x13, 0x10, 0xc8,
  0xeb, 0xf9, 0xe2, 0x15, 0x21, 0x0d, 0xf0, 0x2d, 0xee, 0x1c, 0xf4, 0x11,
  0xde, 0x12, 0x1d, 0xfe, 0xfc, 0xf2, 0x14, 0x06, 0xf1, 0xcd, 0xd0, 0x38,
  0xfe, 0xd9, 0x1a, 0xe8, 0xce, 0xd9, 0x0c, 0x32, 0xf4, 0x0a, 0xfa, 0xf2,
  0xec, 0x16, 0x05, 0xd8, 0xdd, 0x02, 0xeb, 0xf2, 0xe1, 0xf1, 0x06, 0xe6,
  0xf4, 0xfb, 0x0b, 0xfa, 0xf0, 0xdd, 0x01, 0x0e, 0x10, 0xd3, 0x01, 0x28,
  0xeb, 0x05, 0x26, 0xf4, 0x05, 0xe2, 0x27, 0x4a, 0xc9, 0xd5, 0xf5, 0x06,
  0xd2, 0xfb, 0x18, 0xf9, 0xb9, 0xe5, 0xfd, 0x24, 0x0e, 0x01, 0xe1, 0xe8,
  0xef, 0xff, 0x10, 0x05, 0xf7, 0xf1, 0xdf, 0x41, 0x2a, 0x1b, 0xfc, 0xfb,
  0xe5, 0x22, 0x09, 0x0e, 0xd9, 0x11, 0x00, 0x1f, 0xbe, 0x02, 0xdb, 0xf3,
  0x9f, 0xf0, 0xd6, 0x20, 0x0c, 0xe7, 0xf8, 0xf0, 0xeb, 0xef, 0xee, 0xfc,
  0x10, 0x23, 0x1f, 0xcf, 0xc6, 0x0d, 0xca, 0x02, 0xca, 0xf7, 0xac, 0xbd,
  0xda, 0x28, 0xf1, 0x1c, 0xfc, 0xe8, 0x1c, 0x02, 0xea, 0xf7, 0xf5, 0x3a,
  0xfd, 0xd3, 0x05, 0x21, 0x16, 0x0c, 0x19, 0xc1, 0xe3, 0xef, 0x06, 0x1f,
  0xd6, 0xe7, 0xe1, 0xe1, 0xeb, 0x09, 0x1b, 0xde, 0xde, 0xee, 0xc9, 0xfa,
  0xfc, 0x20, 0xec, 0xfd, 0xf7, 0x01, 0x0b, 0xef, 0xe7, 0x23, 0xcb, 0x34,
  0x02, 0xf4, 0x04, 0x2c, 0xda, 0xf0, 0xf0, 0x19, 0x46, 0xff, 0xff, 0xff,
  0x04, 0x00, 0x00, 0x00, 0x08, 0x00, 0x00, 0x00, 0x2c, 0x1c, 0x00, 0x00,
  0xd4, 0xe3, 0xff, 0xff, 0x5a, 0xff, 0xff, 0xff, 0x04, 0x00, 0x00, 0x00,
  0x08, 0x00, 0x00, 0x00, 0xff, 0xff, 0xff, 0xff, 0x90, 0x07, 0x00, 0x00,
  0x78, 0xf5, 0xff, 0xff, 0x7c, 0xf5, 0xff, 0xff, 0x0f, 0x00, 0x00, 0x00,
  0x4d, 0x4c, 0x49, 0x52, 0x20, 0x43, 0x6f, 0x6e, 0x76, 0x65, 0x72, 0x74,
  0x65, 0x64, 0x2e, 0x00, 0x01, 0x00, 0x00, 0x00, 0x14, 0x00, 0x00, 0x00,
  0x00, 0x00, 0x0e, 0x00, 0x18, 0x00, 0x14, 0x00, 0x10, 0x00, 0x0c, 0x00,
  0x08, 0x00, 0x04, 0x00, 0x0e, 0x00, 0x00, 0x00, 0x14, 0x00, 0x00, 0x00,
  0x1c, 0x00, 0x00, 0x00, 0x10, 0x02, 0x00, 0x00, 0x14, 0x02, 0x00, 0x00,
  0x18, 0x02, 0x00, 0x00, 0x04, 0x00, 0x00, 0x00, 0x6d, 0x61, 0x69, 0x6e,
  0x00, 0x00, 0x00, 0x00, 0x07, 0x00, 0x00, 0x00, 0xa8, 0x01, 0x00, 0x00,
  0x44, 0x01, 0x00, 0x00, 0xf0, 0x00, 0x00, 0x00, 0xac, 0x00, 0x00, 0x00,
  0x84, 0x00, 0x00, 0x00, 0x40, 0x00, 0x00, 0x00, 0x04, 0x00, 0x00, 0x00,
  0xe2, 0xfe, 0xff, 0xff, 0x1c, 0x00, 0x00, 0x00, 0x00, 0x00, 0x00, 0x09,
  0x1c, 0x00, 0x00, 0x00, 0x20, 0x00, 0x00, 0x00, 0x04, 0x00, 0x00, 0x00,
  0x00, 0x00, 0x06, 0x00, 0x08, 0x00, 0x04, 0x00, 0x06, 0x00, 0x00, 0x00,
  0x00, 0x00, 0x80, 0x3f, 0x01, 0x00, 0x00, 0x00, 0x0e, 0x00, 0x00, 0x00,
  0x01, 0x00, 0x00, 0x00, 0x0d, 0x00, 0x00, 0x00, 0x1a, 0xff, 0xff, 0xff,
  0x14, 0x00, 0x00, 0x00, 0x00, 0x00, 0x00, 0x08, 0x10, 0x00, 0x00, 0x00,
  0x14, 0x00, 0x00, 0x00, 0x03, 0x00, 0x00, 0x00, 0x40, 0xf6, 0xff, 0xff,
  0x01, 0x00, 0x00, 0x00, 0x0d, 0x00, 0x00, 0x00, 0x03, 0x00, 0x00, 0x00,
  0x0c, 0x00, 0x00, 0x00, 0x03, 0x00, 0x00, 0x00, 0x02, 0x00, 0x00, 0x00,
  0x00, 0x00, 0x0a, 0x00, 0x10, 0x00, 0x0c, 0x00, 0x08, 0x00, 0x04, 0x00,
  0x0a, 0x00, 0x00, 0x00, 0x0c, 0x00, 0x00, 0x00, 0x10, 0x00, 0x00, 0x00,
  0x02, 0x00, 0x00, 0x00, 0x01, 0x00, 0x00, 0x00, 0x0c, 0x00, 0x00, 0x00,
  0x02, 0x00, 0x00, 0x00, 0x0b, 0x00, 0x00, 0x00, 0x01, 0x00, 0x00, 0x00,
  0x7e, 0xff, 0xff, 0xff, 0x14, 0x00, 0x00, 0x00, 0x00, 0x00, 0x00, 0x05,
  0x24, 0x00, 0x00, 0x00, 0x28, 0x00, 0x00, 0x00, 0x01, 0x00, 0x00, 0x00,
  0x6e, 0xff, 0xff, 0xff, 0x02, 0x00, 0x00, 0x00, 0x02, 0x00, 0x00, 0x00,
  0x02, 0x00, 0x00, 0x00, 0x02, 0x00, 0x00, 0x00, 0x00, 0x00, 0x00, 0x01,
  0x01, 0x00, 0x00, 0x00, 0x0b, 0x00, 0x00, 0x00, 0x01, 0x00, 0x00, 0x00,
  0x0a, 0x00, 0x00, 0x00, 0x5e, 0xff, 0xff, 0xff, 0x10, 0x00, 0x00, 0x00,
  0x00, 0x00, 0x00, 0x01, 0x1c, 0x00, 0x00, 0x00, 0x20, 0x00, 0x00, 0x00,
  0x50, 0xff, 0xff, 0xff, 0x00, 0x00, 0x00, 0x01, 0x01, 0x00, 0x00, 0x00,
  0x01, 0x00, 0x00, 0x00, 0x00, 0x00, 0x00, 0x01, 0x01, 0x00, 0x00, 0x00,
  0x0a, 0x00, 0x00, 0x00, 0x03, 0x00, 0x00, 0x00, 0x09, 0x00, 0x00, 0x00,
  0x05, 0x00, 0x00, 0x00, 0x04, 0x00, 0x00, 0x00, 0x00, 0x00, 0x0e, 0x00,
  0x1a, 0x00, 0x14, 0x00, 0x10, 0x00, 0x0c, 0x00, 0x0b, 0x00, 0x04, 0x00,
  0x0e, 0x00, 0x00, 0x00, 0x24, 0x00, 0x00, 0x00, 0x00, 0x00, 0x00, 0x05,
  0x34, 0x00, 0x00, 0x00, 0x38, 0x00, 0x00, 0x00, 0x01, 0x00, 0x00, 0x00,
  0x00, 0x00, 0x0e, 0x00, 0x18, 0x00, 0x17, 0x00, 0x10, 0x00, 0x0c, 0x00,
  0x08, 0x00, 0x04, 0x00, 0x0e, 0x00, 0x00, 0x00, 0x02, 0x00, 0x00, 0x00,
  0x02, 0x00, 0x00, 0x00, 0x02, 0x00, 0x00, 0x00, 0x02, 0x00, 0x00, 0x00,
  0x00, 0x00, 0x00, 0x01, 0x01, 0x00, 0x00, 0x00, 0x09, 0x00, 0x00, 0x00,
  0x01, 0x00, 0x00, 0x00, 0x08, 0x00, 0x00, 0x00, 0x00, 0x00, 0x0e, 0x00,
  0x14, 0x00, 0x00, 0x00, 0x10, 0x00, 0x0c, 0x00, 0x0b, 0x00, 0x04, 0x00,
  0x0e, 0x00, 0x00, 0x00, 0x1c, 0x00, 0x00, 0x00, 0x00, 0x00, 0x00, 0x01,
  0x28, 0x00, 0x00, 0x00, 0x2c, 0x00, 0x00, 0x00, 0x0c, 0x00, 0x14, 0x00,
  0x13, 0x00, 0x0c, 0x00, 0x08, 0x00, 0x07, 0x00, 0x0c, 0x00, 0x00, 0x00,
  0x00, 0x00, 0x00, 0x01, 0x01, 0x00, 0x00, 0x00, 0x01, 0x00, 0x00, 0x00,
  0x00, 0x00, 0x00, 0x01, 0x01, 0x00, 0x00, 0x00, 0x08, 0x00, 0x00, 0x00,
  0x03, 0x00, 0x00, 0x00, 0x00, 0x00, 0x00, 0x00, 0x07, 0x00, 0x00, 0x00,
  0x06, 0x00, 0x00, 0x00, 0x01, 0x00, 0x00, 0x00, 0x0e, 0x00, 0x00, 0x00,
  0x01, 0x00, 0x00, 0x00, 0x00, 0x00, 0x00, 0x00, 0x0f, 0x00, 0x00, 0x00,
  0x60, 0x08, 0x00, 0x00, 0x04, 0x08, 0x00, 0x00, 0x8c, 0x07, 0x00, 0x00,
  0x28, 0x07, 0x00, 0x00, 0xa4, 0x06, 0x00, 0x00, 0x10, 0x06, 0x00, 0x00,
  0x5c, 0x05, 0x00, 0x00, 0x98, 0x04, 0x00, 0x00, 0xcc, 0x03, 0x00, 0x00,
  0x30, 0x03, 0x00, 0x00, 0x3c, 0x02, 0x00, 0x00, 0xa0, 0x01, 0x00, 0x00,
  0x1c, 0x01, 0x00, 0x00, 0x80, 0x00, 0x00, 0x00, 0x04, 0x00, 0x00, 0x00,
  0xf2, 0xf7, 0xff, 0xff, 0x00, 0x00, 0x00, 0x01, 0x18, 0x00, 0x00, 0x00,
  0x20, 0x00, 0x00, 0x00, 0x3c, 0x00, 0x00, 0x00, 0x0f, 0x00, 0x00, 0x00,
  0x00, 0x00, 0x00, 0x09, 0x50, 0x00, 0x00, 0x00, 0x02, 0x00, 0x00, 0x00,
  0xff, 0xff, 0xff, 0xff, 0x02, 0x00, 0x00, 0x00, 0xd4, 0xf7, 0xff, 0xff,
  0x08, 0x00, 0x00, 0x00, 0x10, 0x00, 0x00, 0x00, 0x01, 0x00, 0x00, 0x00,
  0x80, 0xff, 0xff, 0xff, 0xff, 0xff, 0xff, 0xff, 0x01, 0x00, 0x00, 0x00,
  0x00, 0x00, 0x80, 0x3b, 0x1b, 0x00, 0x00, 0x00, 0x53, 0x74, 0x61, 0x74,
  0x65, 0x66, 0x75, 0x6c, 0x50, 0x61, 0x72, 0x74, 0x69, 0x74, 0x69, 0x6f,
  0x6e, 0x65, 0x64, 0x43, 0x61, 0x6c, 0x6c, 0x5f, 0x31, 0x3a, 0x30, 0x00,
  0x02, 0x00, 0x00, 0x00, 0x01, 0x00, 0x00, 0x00, 0x02, 0x00, 0x00, 0x00,
  0x6a, 0xf8, 0xff, 0xff, 0x00, 0x00, 0x00, 0x01, 0x18, 0x00, 0x00, 0x00,
  0x20, 0x00, 0x00, 0x00, 0x40, 0x00, 0x00, 0x00, 0x0e, 0x00, 0x00, 0x00,
  0x00, 0x00, 0x00, 0x09, 0x70, 0x00, 0x00, 0x00, 0x02, 0x00, 0x00, 0x00,
  0xff, 0xff, 0xff, 0xff, 0x02, 0x00, 0x00, 0x00, 0x4c, 0xf8, 0xff, 0xff,
  0x08, 0x00, 0x00, 0x00, 0x14, 0x00, 0x00, 0x00, 0x01, 0x00, 0x00, 0x00,
  0x01, 0x00, 0x00, 0x00, 0x00, 0x00, 0x00, 0x00, 0x00, 0x00, 0x00, 0x00,
  0x01, 0x00, 0x00, 0x00, 0x3b, 0x70, 0x68, 0x3d, 0x34, 0x00, 0x00, 0x00,
  0x73, 0x65, 0x71, 0x75, 0x65, 0x6e, 0x74, 0x69, 0x61, 0x6c, 0x5f, 0x31,
  0x2f, 0x64, 0x65, 0x6e, 0x73, 0x65, 0x5f, 0x31, 0x2f, 0x4d, 0x61, 0x74,
  0x4d, 0x75, 0x6c, 0x3b, 0x73, 0x65, 0x71, 0x75, 0x65, 0x6e, 0x74, 0x69,
  0x61, 0x6c, 0x5f, 0x31, 0x2f, 0x64, 0x65, 0x6e, 0x73, 0x65, 0x5f, 0x31,
  0x2f, 0x41, 0x64, 0x64, 0x00, 0x00, 0x00, 0x00, 0x02, 0x00, 0x00, 0x00,
  0x01, 0x00, 0x00, 0x00, 0x02, 0x00, 0x00, 0x00, 0x02, 0xf9, 0xff, 0xff,
  0x00, 0x00, 0x00, 0x01, 0x18, 0x00, 0x00, 0x00, 0x20, 0x00, 0x00, 0x00,
  0x40, 0x00, 0x00, 0x00, 0x0d, 0x00, 0x00, 0x00, 0x00, 0x00, 0x00, 0x09,
  0x58, 0x00, 0x00, 0x00, 0x02, 0x00, 0x00, 0x00, 0xff, 0xff, 0xff, 0xff,
  0x90, 0x07, 0x00, 0x00, 0xe4, 0xf8, 0xff, 0xff, 0x08, 0x00, 0x00, 0x00,
  0x14, 0x00, 0x00, 0x00, 0x01, 0x00, 0x00, 0x00, 0x80, 0xff, 0xff, 0xff,
  0xff, 0xff, 0xff, 0xff, 0x00, 0x00, 0x00, 0x00, 0x01, 0x00, 0x00, 0x00,
  0xfc, 0xbb, 0x24, 0x3c, 0x1e, 0x00, 0x00, 0x00, 0x73, 0x65, 0x71, 0x75,
  0x65, 0x6e, 0x74, 0x69, 0x61, 0x6c, 0x5f, 0x31, 0x2f, 0x66, 0x6c, 0x61,
  0x74, 0x74, 0x65, 0x6e, 0x5f, 0x31, 0x2f, 0x52, 0x65, 0x73, 0x68, 0x61,
  0x70, 0x65, 0x00, 0x00, 0x02, 0x00, 0x00, 0x00, 0x01, 0x00, 0x00, 0x00,
  0x90, 0x07, 0x00, 0x00, 0x82, 0xf9, 0xff, 0xff, 0x00, 0x00, 0x00, 0x01,
  0x18, 0x00, 0x00, 0x00, 0x28, 0x00, 0x00, 0x00, 0x44, 0x00, 0x00, 0x00,
  0x0c, 0x00, 0x00, 0x00, 0x00, 0x00, 0x00, 0x09, 0x68, 0x00, 0x00, 0x00,
  0x04, 0x00, 0x00, 0x00, 0xff, 0xff, 0xff, 0xff, 0x16, 0x00, 0x00, 0x00,
  0x16, 0x00, 0x00, 0x00, 0x04, 0x00, 0x00, 0x00, 0x6c, 0xf9, 0xff, 0xff,
  0x08, 0x00, 0x00, 0x00, 0x10, 0x00, 0x00, 0x00, 0x01, 0x00, 0x00, 0x00,
  0x80, 0xff, 0xff, 0xff, 0xff, 0xff, 0xff, 0xff, 0x01, 0x00, 0x00, 0x00,
  0xfc, 0xbb, 0x24, 0x3c, 0x28, 0x00, 0x00, 0x00, 0x73, 0x65, 0x71, 0x75,
  0x65, 0x6e, 0x74, 0x69, 0x61, 0x6c, 0x5f, 0x31, 0x2f, 0x6d, 0x61, 0x78,
  0x5f, 0x70, 0x6f, 0x6f, 0x6c, 0x69, 0x6e, 0x67, 0x32, 0x64, 0x5f, 0x31,
  0x5f, 0x32, 0x2f, 0x4d, 0x61, 0x78, 0x50, 0x6f, 0x6f, 0x6c, 0x32, 0x64,
  0x00, 0x00, 0x00, 0x00, 0x04, 0x00, 0x00, 0x00, 0x01, 0x00, 0x00, 0x00,
  0x16, 0x00, 0x00, 0x00, 0x16, 0x00, 0x00, 0x00, 0x04, 0x00, 0x00, 0x00,
  0x1a, 0xfa, 0xff, 0xff, 0x00, 0x00, 0x00, 0x01, 0x18, 0x00, 0x00, 0x00,
  0x28, 0x00, 0x00, 0x00, 0x48, 0x00, 0x00, 0x00, 0x0b, 0x00, 0x00, 0x00,
  0x00, 0x00, 0x00, 0x09, 0xc0, 0x00, 0x00, 0x00, 0x04, 0x00, 0x00, 0x00,
  0xff, 0xff, 0xff, 0xff, 0x2d, 0x00, 0x00, 0x00, 0x2d, 0x00, 0x00, 0x00,
  0x04, 0x00, 0x00, 0x00, 0x04, 0xfa, 0xff, 0xff, 0x08, 0x00, 0x00, 0x00,
  0x14, 0x00, 0x00, 0x00, 0x01, 0x00, 0x00, 0x00, 0x80, 0xff, 0xff, 0xff,
  0xff, 0xff, 0xff, 0xff, 0x00, 0x00, 0x00, 0x00, 0x01, 0x00, 0x00, 0x00,
  0xfc, 0xbb, 0x24, 0x3c, 0x7c, 0x00, 0x00, 0x00, 0x73, 0x65, 0x71, 0x75,
  0x65, 0x6e, 0x74, 0x69, 0x61, 0x6c, 0x5f, 0x31, 0x2f, 0x63, 0x6f, 0x6e,
  0x76, 0x32, 0x64, 0x5f, 0x31, 0x5f, 0x32, 0x2f, 0x52, 0x65, 0x6c, 0x75,
  0x3b, 0x73, 0x65, 0x71, 0x75, 0x65, 0x6e, 0x74, 0x69, 0x61, 0x6c, 0x5f,
  0x31, 0x2f, 0x63, 0x6f, 0x6e, 0x76, 0x32, 0x64, 0x5f, 0x31, 0x5f, 0x32,
  0x2f, 0x61, 0x64, 0x64, 0x3b, 0x73, 0x65, 0x71, 0x75, 0x65, 0x6e, 0x74,
  0x69, 0x61, 0x6c, 0x5f, 0x31, 0x2f, 0x63, 0x6f, 0x6e, 0x76, 0x32, 0x64,
  0x5f, 0x31, 0x5f, 0x32, 0x2f, 0x63, 0x6f, 0x6e, 0x76, 0x6f, 0x6c, 0x75,
  0x74, 0x69, 0x6f, 0x6e, 0x3b, 0x73, 0x65, 0x71, 0x75, 0x65, 0x6e, 0x74,
  0x69, 0x61, 0x6c, 0x5f, 0x31, 0x2f, 0x63, 0x6f, 0x6e, 0x76, 0x32, 0x64,
  0x5f, 0x31, 0x5f, 0x32, 0x2f, 0x52, 0x65, 0x73, 0x68, 0x61, 0x70, 0x65,
  0x00, 0x00, 0x00, 0x00, 0x04, 0x00, 0x00, 0x00, 0x01, 0x00, 0x00, 0x00,
  0x2d, 0x00, 0x00, 0x00, 0x2d, 0x00, 0x00, 0x00, 0x04, 0x00, 0x00, 0x00,
  0x0a, 0xfb, 0xff, 0xff, 0x00, 0x00, 0x00, 0x01, 0x18, 0x00, 0x00, 0x00,
  0x28, 0x00, 0x00, 0x00, 0x48, 0x00, 0x00, 0x00, 0x0a, 0x00, 0x00, 0x00,
  0x00, 0x00, 0x00, 0x09, 0x68, 0x00, 0x00, 0x00, 0x04, 0x00, 0x00, 0x00,
  0xff, 0xff, 0xff, 0xff, 0x2f, 0x00, 0x00, 0x00, 0x2f, 0x00, 0x00, 0x00,
  0x08, 0x00, 0x00, 0x00, 0xf4, 0xfa, 0xff, 0xff, 0x08, 0x00, 0x00, 0x00,
  0x14, 0x00, 0x00, 0x00, 0x01, 0x00, 0x00, 0x00, 0x80, 0xff, 0xff, 0xff,
  0xff, 0xff, 0xff, 0xff, 0x00, 0x00, 0x00, 0x00, 0x01, 0x00, 0x00, 0x00,
  0x21, 0xf5, 0x16, 0x3c, 0x26, 0x00, 0x00, 0x00, 0x73, 0x65, 0x71, 0x75,
  0x65, 0x6e, 0x74, 0x69, 0x61, 0x6c, 0x5f, 0x31, 0x2f, 0x6d, 0x61, 0x78,
  0x5f, 0x70, 0x6f, 0x6f, 0x6c, 0x69, 0x6e, 0x67, 0x32, 0x64, 0x5f, 0x31,
  0x2f, 0x4d, 0x61, 0x78, 0x50, 0x6f, 0x6f, 0x6c, 0x32, 0x64, 0x00, 0x00,
  0x04, 0x00, 0x00, 0x00, 0x01, 0x00, 0x00, 0x00, 0x2f, 0x00, 0x00, 0x00,
  0x2f, 0x00, 0x00, 0x00, 0x08, 0x00, 0x00, 0x00, 0xa2, 0xfb, 0xff, 0xff,
  0x00, 0x00, 0x00, 0x01, 0x18, 0x00, 0x00, 0x00, 0x28, 0x00, 0x00, 0x00,
  0x44, 0x00, 0x00, 0x00, 0x09, 0x00, 0x00, 0x00, 0x00, 0x00, 0x00, 0x09,
  0x98, 0x00, 0x00, 0x00, 0x04, 0x00, 0x00, 0x00, 0xff, 0xff, 0xff, 0xff,
  0x5e, 0x00, 0x00, 0x00, 0x5e, 0x00, 0x00, 0x00, 0x08, 0x00, 0x00, 0x00,
  0x8c, 0xfb, 0xff, 0xff, 0x08, 0x00, 0x00, 0x00, 0x10, 0x00, 0x00, 0x00,
  0x01, 0x00, 0x00, 0x00, 0x80, 0xff, 0xff, 0xff, 0xff, 0xff, 0xff, 0xff,
  0x01, 0x00, 0x00, 0x00, 0x21, 0xf5, 0x16, 0x3c, 0x58, 0x00, 0x00, 0x00,
  0x73, 0x65, 0x71, 0x75, 0x65, 0x6e, 0x74, 0x69, 0x61, 0x6c, 0x5f, 0x31,
  0x2f, 0x63, 0x6f, 0x6e, 0x76, 0x32, 0x64, 0x5f, 0x31, 0x2f, 0x52, 0x65,
  0x6c, 0x75, 0x3b, 0x73, 0x65, 0x71, 0x75, 0x65, 0x6e, 0x74, 0x69, 0x61,
  0x6c, 0x5f, 0x31, 0x2f, 0x63, 0x6f, 0x6e, 0x76, 0x32, 0x64, 0x5f, 0x31,
  0x2f, 0x61, 0x64, 0x64, 0x3b, 0x73, 0x65, 0x71, 0x75, 0x65, 0x6e, 0x74,
  0x69, 0x61, 0x6c, 0x5f, 0x31, 0x2f, 0x63, 0x6f, 0x6e, 0x76, 0x32, 0x64,
  0x5f, 0x31, 0x2f, 0x63, 0x6f, 0x6e, 0x76, 0x6f, 0x6c, 0x75, 0x74, 0x69,
  0x6f, 0x6e, 0x3b, 0x31, 0x00, 0x00, 0x00, 0x00, 0x04, 0x00, 0x00, 0x00,
  0x01, 0x00, 0x00, 0x00, 0x5e, 0x00, 0x00, 0x00, 0x5e, 0x00, 0x00, 0x00,
  0x08, 0x00, 0x00, 0x00, 0xc2, 0xfc, 0xff, 0xff, 0x00, 0x00, 0x00, 0x01,
  0x14, 0x00, 0x00, 0x00, 0x88, 0x00, 0x00, 0x00, 0x08, 0x00, 0x00, 0x00,
  0x00, 0x00, 0x00, 0x09, 0x94, 0x00, 0x00, 0x00, 0x3c, 0xfc, 0xff, 0xff,
  0x08, 0x00, 0x00, 0x00, 0x4c, 0x00, 0x00, 0x00, 0x08, 0x00, 0x00, 0x00,
  0x00, 0x00, 0x00, 0x00, 0x00, 0x00, 0x00, 0x00, 0x00, 0x00, 0x00, 0x00,
  0x00, 0x00, 0x00, 0x00, 0x00, 0x00, 0x00, 0x00, 0x00, 0x00, 0x00, 0x00,
  0x00, 0x00, 0x00, 0x00, 0x00, 0x00, 0x00, 0x00, 0x00, 0x00, 0x00, 0x00,
  0x00, 0x00, 0x00, 0x00, 0x00, 0x00, 0x00, 0x00, 0x00, 0x00, 0x00, 0x00,
  0x00, 0x00, 0x00, 0x00, 0x00, 0x00, 0x00, 0x00, 0x00, 0x00, 0x00, 0x00,
  0x00, 0x00, 0x00, 0x00, 0x00, 0x00, 0x00, 0x00, 0x08, 0x00, 0x00, 0x00,
  0x1c, 0xd9, 0xf9, 0x3a, 0x92, 0xcd, 0x24, 0x3b, 0x6b, 0xb2, 0x2b, 0x3b,
  0x46, 0xff, 0x25, 0x3b, 0x36, 0xdf, 0x4a, 0x3b, 0x47, 0x1b, 0x1f, 0x3b,
  0x1b, 0xd3, 0x7d, 0x3b, 0x27, 0x07, 0x5b, 0x3b, 0x12, 0x00, 0x00, 0x00,
  0x74, 0x66, 0x6c, 0x2e, 0x70, 0x73, 0x65, 0x75, 0x64, 0x6f, 0x5f, 0x71,
  0x63, 0x6f, 0x6e, 0x73, 0x74, 0x35, 0x00, 0x00, 0x04, 0x00, 0x00, 0x00,
  0x08, 0x00, 0x00, 0x00, 0x03, 0x00, 0x00, 0x00, 0x03, 0x00, 0x00, 0x00,
  0x01, 0x00, 0x00, 0x00, 0x82, 0xfd, 0xff, 0xff, 0x00, 0x00, 0x00, 0x01,
  0x14, 0x00, 0x00, 0x00, 0x84, 0x00, 0x00, 0x00, 0x07, 0x00, 0x00, 0x00,
  0x00, 0x00, 0x00, 0x02, 0x90, 0x00, 0x00, 0x00, 0xfc, 0xfc, 0xff, 0xff,
  0x08, 0x00, 0x00, 0x00, 0x48, 0x00, 0x00, 0x00, 0x08, 0x00, 0x00, 0x00,
  0x00, 0x00, 0x00, 0x00, 0x00, 0x00, 0x00, 0x00, 0x00, 0x00, 0x00, 0x00,
  0x00, 0x00, 0x00, 0x00, 0x00, 0x00, 0x00, 0x00, 0x00, 0x00, 0x00, 0x00,
  0x00, 0x00, 0x00, 0x00, 0x00, 0x00, 0x00, 0x00, 0x00, 0x00, 0x00, 0x00,
  0x00, 0x00, 0x00, 0x00, 0x00, 0x00, 0x00, 0x00, 0x00, 0x00, 0x00, 0x00,
  0x00, 0x00, 0x00, 0x00, 0x00, 0x00, 0x00, 0x00, 0x00, 0x00, 0x00, 0x00,
  0x00, 0x00, 0x00, 0x00, 0x08, 0x00, 0x00, 0x00, 0x63, 0x0a, 0x6e, 0x37,
  0xbf, 0x03, 0x9d, 0x37, 0x30, 0x95, 0xa3, 0x37, 0x00, 0x27, 0x9e, 0x37,
  0xd2, 0x48, 0xc1, 0x37, 0x5e, 0x96, 0x97, 0x37, 0x46, 0xd4, 0xf1, 0x37,
  0x4d, 0xad, 0xd0, 0x37, 0x12, 0x00, 0x00, 0x00, 0x74, 0x66, 0x6c, 0x2e,
  0x70, 0x73, 0x65, 0x75, 0x64, 0x6f, 0x5f, 0x71, 0x63, 0x6f, 0x6e, 0x73,
  0x74, 0x34, 0x00, 0x00, 0x01, 0x00, 0x00, 0x00, 0x08, 0x00, 0x00, 0x00,
  0x32, 0xfe, 0xff, 0xff, 0x00, 0x00, 0x00, 0x01, 0x14, 0x00, 0x00, 0x00,
  0x58, 0x00, 0x00, 0x00, 0x06, 0x00, 0x00, 0x00, 0x00, 0x00, 0x00, 0x09,
  0x64, 0x00, 0x00, 0x00, 0xac, 0xfd, 0xff, 0xff, 0x08, 0x00, 0x00, 0x00,
  0x2c, 0x00, 0x00, 0x00, 0x04, 0x00, 0x00, 0x00, 0x00, 0x00, 0x00, 0x00,
  0x00, 0x00, 0x00, 0x00, 0x00, 0x00, 0x00, 0x00, 0x00, 0x00, 0x00, 0x00,
  0x00, 0x00, 0x00, 0x00, 0x00, 0x00, 0x00, 0x00, 0x00, 0x00, 0x00, 0x00,
  0x00, 0x00, 0x00, 0x00, 0x00, 0x00, 0x00, 0x00, 0x04, 0x00, 0x00, 0x00,
  0x17, 0xb5, 0x6a, 0x3b, 0x4f, 0x69, 0x2e, 0x3b, 0xfa, 0x9f, 0x23, 0x3b,
  0x68, 0xd3, 0x70, 0x3b, 0x12, 0x00, 0x00, 0x00, 0x74, 0x66, 0x6c, 0x2e,
  0x70, 0x73, 0x65, 0x75, 0x64, 0x6f, 0x5f, 0x71, 0x63, 0x6f, 0x6e, 0x73,
  0x74, 0x33, 0x00, 0x00, 0x04, 0x00, 0x00, 0x00, 0x04, 0x00, 0x00, 0x00,
  0x03, 0x00, 0x00, 0x00, 0x03, 0x00, 0x00, 0x00, 0x08, 0x00, 0x00, 0x00,
  0xc2, 0xfe, 0xff, 0xff, 0x00, 0x00, 0x00, 0x01, 0x14, 0x00, 0x00, 0x00,
  0x54, 0x00, 0x00, 0x00, 0x05, 0x00, 0x00, 0x00, 0x00, 0x00, 0x00, 0x02,
  0x60, 0x00, 0x00, 0x00, 0x3c, 0xfe, 0xff, 0xff, 0x08, 0x00, 0x00, 0x00,
  0x28, 0x00, 0x00, 0x00, 0x04, 0x00, 0x00, 0x00, 0x00, 0x00, 0x00, 0x00,
  0x00, 0x00, 0x00, 0x00, 0x00, 0x00, 0x00, 0x00, 0x00, 0x00, 0x00, 0x00,
  0x00, 0x00, 0x00, 0x00, 0x00, 0x00, 0x00, 0x00, 0x00, 0x00, 0x00, 0x00,
  0x00, 0x00, 0x00, 0x00, 0x04, 0x00, 0x00, 0x00, 0xd9, 0x66, 0x0a, 0x38,
  0x6b, 0xb1, 0xcd, 0x37, 0xd3, 0xf8, 0xc0, 0x37, 0x78, 0x02, 0x0e, 0x38,
  0x12, 0x00, 0x00, 0x00, 0x74, 0x66, 0x6c, 0x2e, 0x70, 0x73, 0x65, 0x75,
  0x64, 0x6f, 0x5f, 0x71, 0x63, 0x6f, 0x6e, 0x73, 0x74, 0x32, 0x00, 0x00,
  0x01, 0x00, 0x00, 0x00, 0x04, 0x00, 0x00, 0x00, 0x42, 0xff, 0xff, 0xff,
  0x00, 0x00, 0x00, 0x01, 0x14, 0x00, 0x00, 0x00, 0x30, 0x00, 0x00, 0x00,
  0x04, 0x00, 0x00, 0x00, 0x00, 0x00, 0x00, 0x09, 0x3c, 0x00, 0x00, 0x00,
  0xbc, 0xfe, 0xff, 0xff, 0x08, 0x00, 0x00, 0x00, 0x10, 0x00, 0x00, 0x00,
  0x01, 0x00, 0x00, 0x00, 0x00, 0x00, 0x00, 0x00, 0x00, 0x00, 0x00, 0x00,
  0x01, 0x00, 0x00, 0x00, 0xd2, 0x78, 0xf1, 0x3a, 0x12, 0x00, 0x00, 0x00,
  0x74, 0x66, 0x6c, 0x2e, 0x70, 0x73, 0x65, 0x75, 0x64, 0x6f, 0x5f, 0x71,
  0x63, 0x6f, 0x6e, 0x73, 0x74, 0x31, 0x00, 0x00, 0x02, 0x00, 0x00, 0x00,
  0x02, 0x00, 0x00, 0x00, 0x90, 0x07, 0x00, 0x00, 0xa2, 0xff, 0xff, 0xff,
  0x00, 0x00, 0x00, 0x01, 0x14, 0x00, 0x00, 0x00, 0x30, 0x00, 0x00, 0x00,
  0x03, 0x00, 0x00, 0x00, 0x00, 0x00, 0x00, 0x02, 0x3c, 0x00, 0x00, 0x00,
  0x1c, 0xff, 0xff, 0xff, 0x08, 0x00, 0x00, 0x00, 0x10, 0x00, 0x00, 0x00,
  0x01, 0x00, 0x00, 0x00, 0x00, 0x00, 0x00, 0x00, 0x00, 0x00, 0x00, 0x00,
  0x01, 0x00, 0x00, 0x00, 0xb7, 0x62, 0x9b, 0x37, 0x11, 0x00, 0x00, 0x00,
  0x74, 0x66, 0x6c, 0x2e, 0x70, 0x73, 0x65, 0x75, 0x64, 0x6f, 0x5f, 0x71,
  0x63, 0x6f, 0x6e, 0x73, 0x74, 0x00, 0x00, 0x00, 0x01, 0x00, 0x00, 0x00,
  0x02, 0x00, 0x00, 0x00, 0x00, 0x00, 0x16, 0x00, 0x1c, 0x00, 0x18, 0x00,
  0x17, 0x00, 0x10, 0x00, 0x0c, 0x00, 0x08, 0x00, 0x00, 0x00, 0x00, 0x00,
  0x00, 0x00, 0x07, 0x00, 0x16, 0x00, 0x00, 0x00, 0x00, 0x00, 0x00, 0x01,
  0x18, 0x00, 0x00, 0x00, 0x18, 0x00, 0x00, 0x00, 0x02, 0x00, 0x00, 0x00,
  0x00, 0x00, 0x00, 0x02, 0x20, 0x00, 0x00, 0x00, 0x04, 0x00, 0x04, 0x00,
  0x04, 0x00, 0x00, 0x00, 0x0e, 0x00, 0x00, 0x00, 0x61, 0x72, 0x69, 0x74,
  0x68, 0x2e, 0x63, 0x6f, 0x6e, 0x73, 0x74, 0x61, 0x6e, 0x74, 0x00, 0x00,
  0x01, 0x00, 0x00, 0x00, 0x02, 0x00, 0x00, 0x00, 0x00, 0x00, 0x16, 0x00,
  0x20, 0x00, 0x1c, 0x00, 0x1b, 0x00, 0x14, 0x00, 0x10, 0x00, 0x0c, 0x00,
  0x00, 0x00, 0x00, 0x00, 0x08, 0x00, 0x07, 0x00, 0x16, 0x00, 0x00, 0x00,
  0x00, 0x00, 0x00, 0x01, 0x18, 0x00, 0x00, 0x00, 0x34, 0x00, 0x00, 0x00,
  0x54, 0x00, 0x00, 0x00, 0x01, 0x00, 0x00, 0x00, 0x00, 0x00, 0x00, 0x09,
  0x6c, 0x00, 0x00, 0x00, 0x04, 0x00, 0x00, 0x00, 0xff, 0xff, 0xff, 0xff,
  0x60, 0x00, 0x00, 0x00, 0x60, 0x00, 0x00, 0x00, 0x01, 0x00, 0x00, 0x00,
  0x0c, 0x00, 0x0c, 0x00, 0x00, 0x00, 0x00, 0x00, 0x08, 0x00, 0x04, 0x00,
  0x0c, 0x00, 0x00, 0x00, 0x08, 0x00, 0x00, 0x00, 0x14, 0x00, 0x00, 0x00,
  0x01, 0x00, 0x00, 0x00, 0x00, 0x00, 0x00, 0x00, 0x00, 0x00, 0x00, 0x00,
  0x00, 0x00, 0x00, 0x00, 0x01, 0x00, 0x00, 0x00, 0xda, 0xe6, 0xf3, 0x3b,
  0x1e, 0x00, 0x00, 0x00, 0x73, 0x65, 0x72, 0x76, 0x69, 0x6e, 0x67, 0x5f,
  0x64, 0x65, 0x66, 0x61, 0x75, 0x6c, 0x74, 0x5f, 0x6b, 0x65, 0x72, 0x61,
  0x73, 0x5f, 0x74, 0x65, 0x6e, 0x73, 0x6f, 0x72, 0x3a, 0x30, 0x00, 0x00,
  0x04, 0x00, 0x00, 0x00, 0x01, 0x00, 0x00, 0x00, 0x60, 0x00, 0x00, 0x00,
  0x60, 0x00, 0x00, 0x00, 0x01, 0x00, 0x00, 0x00, 0x05, 0x00, 0x00, 0x00,
  0x68, 0x00, 0x00, 0x00, 0x48, 0x00, 0x00, 0x00, 0x38, 0x00, 0x00, 0x00,
  0x18, 0x00, 0x00, 0x00, 0x04, 0x00, 0x00, 0x00, 0xb8, 0xff, 0xff, 0xff,
  0x19, 0x00, 0x00, 0x00, 0x02, 0x00, 0x00, 0x00, 0x00, 0x00, 0x00, 0x19,
  0xc8, 0xff, 0xff, 0xff, 0x09, 0x00, 0x00, 0x00, 0x04, 0x00, 0x00, 0x00,
  0x00, 0x00, 0x00, 0x09, 0x0c, 0x00, 0x0c, 0x00, 0x0b, 0x00, 0x00, 0x00,
  0x00, 0x00, 0x04, 0x00, 0x0c, 0x00, 0x00, 0x00, 0x16, 0x00, 0x00, 0x00,
  0x00, 0x00, 0x00, 0x16, 0xf0, 0xff, 0xff, 0xff, 0x11, 0x00, 0x00, 0x00,
  0x02, 0x00, 0x00, 0x00, 0x00, 0x00, 0x00, 0x11, 0x0c, 0x00, 0x10, 0x00,
  0x0f, 0x00, 0x00, 0x00, 0x08, 0x00, 0x04, 0x00, 0x0c, 0x00, 0x00, 0x00,
  0x03, 0x00, 0x00, 0x00, 0x03, 0x00, 0x00, 0x00, 0x00, 0x00, 0x00, 0x03
};
unsigned int model_len = 7992;
